{
  "version": "1.0",
  "truncation": null,
  "padding": null,
  "added_tokens": [
    {
      "id": 0,
      "content": "<|endoftext|>",
      "single_word": false,
      "lstrip": false,
      "rstrip": false,
      "normalized": false,
      "special": true
    }
  ],
  "normalizer": null,
  "pre_tokenizer": {
    "type": "ByteLevel",
    "add_prefix_space": false,
    "trim_offsets": true,
    "use_regex": true
  },
  "post_processor": null,
  "decoder": {
    "type": "ByteLevel",
    "add_prefix_space": true,
    "trim_offsets": true,
    "use_regex": true
  },
  "model": {
    "type": "BPE",
    "dropout": null,
    "unk_token": null,
    "continuing_subword_prefix": null,
    "end_of_word_suffix": null,
    "fuse_unk": false,
    "byte_fallback": false,
    "ignore_merges": false,
    "vocab": {
      "<|endoftext|>": 0,
      "!": 1,
      "\"": 2,
      "#": 3,
      "$": 4,
      "%": 5,
      "&": 6,
      "'": 7,
      "(": 8,
      ")": 9,
      "*": 10,
      "+": 11,
      ",": 12,
      "-": 13,
      ".": 14,
      "/": 15,
      "0": 16,
      "1": 17,
      "2": 18,
      "3": 19,
      "4": 20,
      "5": 21,
      "6": 22,
      "7": 23,
      "8": 24,
      "9": 25,
      ":": 26,
      ";": 27,
      "<": 28,
      "=": 29,
      ">": 30,
      "?": 31,
      "@": 32,
      "A": 33,
      "B": 34,
      "C": 35,
      "D": 36,
      "E": 37,
      "F": 38,
      "G": 39,
      "H": 40,
      "I": 41,
      "J": 42,
      "K": 43,
      "L": 44,
      "M": 45,
      "N": 46,
      "O": 47,
      "P": 48,
      "Q": 49,
      "R": 50,
      "S": 51,
      "T": 52,
      "U": 53,
      "V": 54,
      "W": 55,
      "X": 56,
      "Y": 57,
      "Z": 58,
      "[": 59,
      "\\": 60,
      "]": 61,
      "^": 62,
      "_": 63,
      "`": 64,
      "a": 65,
      "b": 66,
      "c": 67,
      "d": 68,
      "e": 69,
      "f": 70,
      "g": 71,
      "h": 72,
      "i": 73,
      "j": 74,
      "k": 75,
      "l": 76,
      "m": 77,
      "n": 78,
      "o": 79,
      "p": 80,
      "q": 81,
      "r": 82,
      "s": 83,
      "t": 84,
      "u": 85,
      "v": 86,
      "w": 87,
      "x": 88,
      "y": 89,
      "z": 90,
      "{": 91,
      "|": 92,
      "}": 93,
      "~": 94,
      "¡": 95,
      "¢": 96,
      "£": 97,
      "¤": 98,
      "¥": 99,
      "¦": 100,
      "§": 101,
      "¨": 102,
      "©": 103,
      "ª": 104,
      "«": 105,
      "¬": 106,
      "®": 107,
      "¯": 108,
      "°": 109,
      "±": 110,
      "²": 111,
      "³": 112,
      "´": 113,
      "µ": 114,
      "¶": 115,
      "·": 116,
      "¸": 117,
      "¹": 118,
      "º": 119,
      "»": 120,
      "¼": 121,
      "½": 122,
      "¾": 123,
      "¿": 124,
      "À": 125,
      "Á": 126,
      "Â": 127,
      "Ã": 128,
      "Ä": 129,
      "Å": 130,
      "Æ": 131,
      "Ç": 132,
      "È": 133,
      "É": 134,
      "Ê": 135,
      "Ë": 136,
      "Ì": 137,
      "Í": 138,
      "Î": 139,
      "Ï": 140,
      "Ð": 141,
      "Ñ": 142,
      "Ò": 143,
      "Ó": 144,
      "Ô": 145,
      "Õ": 146,
      "Ö": 147,
      "×": 148,
      "Ø": 149,
      "Ù": 150,
      "Ú": 151,
      "Û": 152,
      "Ü": 153,
      "Ý": 154,
      "Þ": 155,
      "ß": 156,
      "à": 157,
      "á": 158,
      "â": 159,
      "ã": 160,
      "ä": 161,
      "å": 162,
      "æ": 163,
      "ç": 164,
      "è": 165,
      "é": 166,
      "ê": 167,
      "ë": 168,
      "ì": 169,
      "í": 170,
      "î": 171,
      "ï": 172,
      "ð": 173,
      "ñ": 174,
      "ò": 175,
      "ó": 176,
      "ô": 177,
      "õ": 178,
      "ö": 179,
      "÷": 180,
      "ø": 181,
      "ù": 182,
      "ú": 183,
      "û": 184,
      "ü": 185,
      "ý": 186,
      "þ": 187,
      "ÿ": 188,
      "Ā": 189,
      "ā": 190,
      "Ă": 191,
      "ă": 192,
      "Ą": 193,
      "ą": 194,
      "Ć": 195,
      "ć": 196,
      "Ĉ": 197,
      "ĉ": 198,
      "Ċ": 199,
      "ċ": 200,
      "Č": 201,
      "č": 202,
      "Ď": 203,
      "ď": 204,
      "Đ": 205,
      "đ": 206,
      "Ē": 207,
      "ē": 208,
      "Ĕ": 209,
      "ĕ": 210,
      "Ė": 211,
      "ė": 212,
      "Ę": 213,
      "ę": 214,
      "Ě": 215,
      "ě": 216,
      "Ĝ": 217,
      "ĝ": 218,
      "Ğ": 219,
      "ğ": 220,
      "Ġ": 221,
      "ġ": 222,
      "Ģ": 223,
      "ģ": 224,
      "Ĥ": 225,
      "ĥ": 226,
      "Ħ": 227,
      "ħ": 228,
      "Ĩ": 229,
      "ĩ": 230,
      "Ī": 231,
      "ī": 232,
      "Ĭ": 233,
      "ĭ": 234,
      "Į": 235,
      "į": 236,
      "İ": 237,
      "ı": 238,
      "Ĳ": 239,
      "ĳ": 240,
      "Ĵ": 241,
      "ĵ": 242,
      "Ķ": 243,
      "ķ": 244,
      "ĸ": 245,
      "Ĺ": 246,
      "ĺ": 247,
      "Ļ": 248,
      "ļ": 249,
      "Ľ": 250,
      "ľ": 251,
      "Ŀ": 252,
      "ŀ": 253,
      "Ł": 254,
      "ł": 255,
      "Ń": 256,
      "he": 257,
      "Ġt": 258,
      "Ġa": 259,
      "Ġs": 260,
      "nd": 261,
      "Ġw": 262,
      "Ġthe": 263,
      "ed": 264,
      "Ġand": 265,
      "Ġto": 266,
      "Ġb": 267,
      "in": 268,
      "Ġh": 269,
      "Ġwa": 270,
      "re": 271,
      "Ġf": 272,
      "ou": 273,
      "it": 274,
      "Ġl": 275,
      "Ġc": 276,
      "Ġd": 277,
      "er": 278,
      "Ġhe": 279,
      "Ġm": 280,
      "Ġp": 281,
      "Ġwas": 282,
      "om": 283,
      "ĠT": 284,
      "Ġo": 285,
      "ay": 286,
      "ar": 287,
      "is": 288,
      "ing": 289,
      "il": 290,
      "Ġg": 291,
      "id": 292,
      "at": 293,
      "en": 294,
      "Ġn": 295,
      "Ġsa": 296,
      "Ġha": 297,
      "ĠS": 298,
      "ĠThe": 299,
      "an": 300,
      "im": 301,
      "or": 302,
      "on": 303,
      "Ġit": 304,
      "Ġth": 305,
      "ll": 306,
      "le": 307,
      "ĠH": 308,
      "Ġher": 309,
      "ot": 310,
      "et": 311,
      "ir": 312,
      "ĠShe": 313,
      "ĠHe": 314,
      "es": 315,
      "end": 316,
      "Ġin": 317,
      "ver": 318,
      "ut": 319,
      "ow": 320,
      "ĠThey": 321,
      "ck": 322,
      "Ġu": 323,
      "ld": 324,
      "ily": 325,
      "Ġy": 326,
      "oo": 327,
      "Ġsaid": 328,
      "ig": 329,
      "ex": 330,
      "Ġr": 331,
      "am": 332,
      "Ġbe": 333,
      "Ġst": 334,
      "Ġ\"": 335,
      "ce": 336,
      "ĠI": 337,
      "Ġshe": 338,
      "ke": 339,
      "pp": 340,
      "ith": 341,
      "Lily": 342,
      "ve": 343,
      "Ġwith": 344,
      "On": 345,
      "Ġon": 346,
      "Ġof": 347,
      "ri": 348,
      "ked": 349,
      "Ġhis": 350,
      "Ġyou": 351,
      "Ġpl": 352,
      "ft": 353,
      "Ġso": 354,
      "nt": 355,
      "very": 356,
      "ad": 357,
      "Ġday": 358,
      "Ġthat": 359,
      "Ġup": 360,
      "ĠLily": 361,
      "Ġplay": 362,
      "el": 363,
      "Ġhad": 364,
      "Ġthey": 365,
      "st": 366,
      "ext": 367,
      "Ġmom": 368,
      "Ġwe": 369,
      "Ġfor": 370,
      "Ġe": 371,
      "my": 372,
      "ould": 373,
      "un": 374,
      "ĠB": 375,
      "'s": 376,
      "oft": 377,
      "<|": 378,
      "|>": 379,
      "endoft": 380,
      "endoftext": 381,
      "The": 382,
      "Ġli": 383,
      "Ġhapp": 384,
      "ch": 385,
      "ent": 386,
      "itt": 387,
      "Ġwant": 388,
      "her": 389,
      "Ġsh": 390,
      "out": 391,
      "Ġdo": 392,
      "Ġnot": 393,
      "Ġvery": 394,
      "ome": 395,
      "ly": 396,
      "all": 397,
      "ound": 398,
      "ittle": 399,
      "ime": 400,
      "se": 401,
      "Ġwh": 402,
      "Ġk": 403,
      "Ġlittle": 404,
      "Ġtime": 405,
      "Ġthere": 406,
      "al": 407,
      "ht": 408,
      "Ġhappy": 409,
      "ĠĊ": 410,
      "Ġbig": 411,
      "Ġre": 412,
      "ĠM": 413,
      "Ġis": 414,
      "ĠIt": 415,
      "Ġsm": 416,
      "Ġbut": 417,
      "ra": 418,
      "Ġsaw": 419,
      "riend": 420,
      "Ġfriend": 421,
      "Ġan": 422,
      "ry": 423,
      "Ġas": 424,
      "ack": 425,
      "Ġne": 426,
      ".\"": 427,
      "One": 428,
      "ide": 429,
      "ake": 430,
      "'t": 431,
      "ved": 432,
      "ug": 433,
      "Once": 434,
      "Ġlo": 435,
      "Ġloo": 436,
      "Ġwere": 437,
      "ore": 438,
      "!\"": 439,
      "ec": 440,
      "Ġhim": 441,
      "Ġbo": 442,
      "Ġtoo": 443,
      "ĠTim": 444,
      "Ġse": 445,
      "Ġgo": 446,
      "irl": 447,
      "Ġupon": 448,
      "Ġwanted": 449,
      "Ġj": 450,
      "ard": 451,
      "Ġgirl": 452,
      "ill": 453,
      "Ġare": 454,
      "Ġthem": 455,
      "Ġout": 456,
      "Ġat": 457,
      "Ġtheir": 458,
      "ind": 459,
      "Ġsp": 460,
      "way": 461,
      "fu": 462,
      "Ġdid": 463,
      "ur": 464,
      "Ġcould": 465,
      "ĠA": 466,
      "hen": 467,
      "Ġsmil": 468,
      "ain": 469,
      "Ġhave": 470,
      "art": 471,
      "ter": 472,
      "Ġwent": 473,
      "hed": 474,
      "rom": 475,
      "ic": 476,
      "round": 477,
      "Ġex": 478,
      "lp": 479,
      "Ġnam": 480,
      "Ġcan": 481,
      "ful": 482,
      "Ġfriends": 483,
      "ĠBen": 484,
      "hing": 485,
      "Ġhelp": 486,
      "Ġkn": 487,
      "Ġall": 488,
      "ĠJ": 489,
      "ood": 490,
      "ight": 491,
      "?\"": 492,
      "um": 493,
      "ark": 494,
      "one": 495,
      "Ġback": 496,
      "Ġfun": 497,
      "Ġcl": 498,
      "are": 499,
      "Ġsay": 500,
      "Ġle": 501,
      "You": 502,
      "Ġnamed": 503,
      "Ġno": 504,
      "ĠTom": 505,
      "Ġloved": 506,
      "op": 507,
      "elt": 508,
      "ĠTimmy": 509,
      "ĠOne": 510,
      "oug": 511,
      "Ġal": 512,
      "Ġsc": 513,
      "side": 514,
      "Ġfelt": 515,
      "Ġtoy": 516,
      "ick": 517,
      "Ġsmiled": 518,
      "Ġman": 519,
      "Ġfe": 520,
      "Ġasked": 521,
      "Ġsee": 522,
      "ame": 523,
      "Ġlooked": 524,
      "Ġlike": 525,
      "Ġaround": 526,
      "Ġsome": 527,
      "omet": 528,
      "ure": 529,
      "Ġro": 530,
      "Ġboy": 531,
      "Ġbr": 532,
      "get": 533,
      "Ġwould": 534,
      "Ġme": 535,
      "ĠW": 536,
      "Ġbir": 537,
      "ong": 538,
      "ice": 539,
      "Ġstart": 540,
      "ss": 541,
      "Ġsomet": 542,
      "Ġbird": 543,
      "ings": 544,
      "Ġfa": 545,
      "Ġwor": 546,
      "Ġag": 547,
      "ade": 548,
      "Ġmake": 549,
      "Ġwhat": 550,
      "Ġtre": 551,
      "dd": 552,
      "king": 553,
      "gether": 554,
      "own": 555,
      "ĠBut": 556,
      "Ġaway": 557,
      "Ġran": 558,
      "ag": 559,
      "Ġstarted": 560,
      ",\"": 561,
      "ĠYou": 562,
      "oud": 563,
      "Ġmade": 564,
      "ared": 565,
      "ie": 566,
      "Ġtogether": 567,
      "Ã¢": 568,
      "âĤ": 569,
      "âĤ¬": 570,
      "Ġco": 571,
      "Ġsays": 572,
      "Ġpark": 573,
      "Ġsomething": 574,
      "Ġcar": 575,
      "ther": 576,
      "ited": 577,
      "Ġsad": 578,
      "Ġput": 579,
      "Ġnew": 580,
      "Ġother": 581,
      "Ġpr": 582,
      "ble": 583,
      "Ġagain": 584,
      "Ġfrom": 585,
      "Ġexc": 586,
      "Ġhug": 587,
      "Ġmu": 588,
      "Ġhome": 589,
      "Ġla": 590,
      "ell": 591,
      "Ġwhen": 592,
      "Ġwho": 593,
      "ook": 594,
      "Ġgood": 595,
      "est": 596,
      "ried": 597,
      "Ġfound": 598,
      "if": 599,
      "ĠL": 600,
      "Ġthen": 601,
      "ach": 602,
      "ep": 603,
      "Ġdec": 604,
      "Ġfl": 605,
      "pped": 606,
      "Ġch": 607,
      "as": 608,
      "Ġplaying": 609,
      "ought": 610,
      "Ġwal": 611,
      "Ġget": 612,
      "qu": 613,
      "ally": 614,
      "hat": 615,
      "ĠE": 616,
      "Ġthings": 617,
      "Ġsw": 618,
      "uck": 619,
      "Ġgot": 620,
      "pl": 621,
      "ous": 622,
      "Ġliked": 623,
      "nn": 624,
      "Ġevery": 625,
      "Ġdecid": 626,
      "Ġexcited": 627,
      "ave": 628,
      "Ġdecided": 629,
      "ro": 630,
      "Ġcame": 631,
      "ax": 632,
      "Ġbl": 633,
      "Ġbec": 634,
      "Ġdown": 635,
      "Ġyour": 636,
      "Ġv": 637,
      "Ġfind": 638,
      "Ġcare": 639,
      "Ġdog": 640,
      "ust": 641,
      "Ġscared": 642,
      "Ġone": 643,
      "Ġfeel": 644,
      "Ġthan": 645,
      "ist": 646,
      "ouse": 647,
      "ny": 648,
      "Ġdad": 649,
      "ĠD": 650,
      "ap": 651,
      "ĠMom": 652,
      "Ġab": 653,
      "arn": 654,
      "ara": 655,
      "ways": 656,
      "ue": 657,
      "Ġdidn": 658,
      "nna": 659,
      "Ġgra": 660,
      "udd": 661,
      "Ġmy": 662,
      "Ġalways": 663,
      "ant": 664,
      "Ġtook": 665,
      "ers": 666,
      "They": 667,
      "Ġke": 668,
      "us": 669,
      "Ġmommy": 670,
      "ess": 671,
      "ĠF": 672,
      "fe": 673,
      "Ġabout": 674,
      "our": 675,
      "Ġlot": 676,
      "Ġtoys": 677,
      "Ġtree": 678,
      "Ġpo": 679,
      "Ġkne": 680,
      "Ġball": 681,
      "Ġlook": 682,
      "Ġwill": 683,
      "nder": 684,
      "Ġoutside": 685,
      "ite": 686,
      "Ġthought": 687,
      "eci": 688,
      "ened": 689,
      "Ġta": 690,
      "Ġlearn": 691,
      "bb": 692,
      "ise": 693,
      "ched": 694,
      "Ġmore": 695,
      "Ġpre": 696,
      "Ġknow": 697,
      "Ġho": 698,
      "Ġint": 699,
      "ĠSam": 700,
      "ged": 701,
      "ecial": 702,
      "Ġspecial": 703,
      "Ġold": 704,
      "Ġtake": 705,
      "Ġsor": 706,
      "ĠMax": 707,
      "Ġlaug": 708,
      "Ġpe": 709,
      "Ġknew": 710,
      "ive": 711,
      "Ġcat": 712,
      "ma": 713,
      "fter": 714,
      "Ġhow": 715,
      "Ġany": 716,
      "udden": 717,
      "au": 718,
      "Ġshow": 719,
      "Ġtr": 720,
      "Ġmuch": 721,
      "ia": 722,
      "uddenly": 723,
      "Ġsorry": 724,
      "and": 725,
      "Ġsl": 726,
      "ink": 727,
      "But": 728,
      "ish": 729,
      "Ġrun": 730,
      "Ġhouse": 731,
      "Ġtw": 732,
      "ven": 733,
      "Ġtold": 734,
      "Ġor": 735,
      "Ġsk": 736,
      "Ġop": 737,
      "Ġhand": 738,
      "Ġsun": 739,
      "Ġinside": 740,
      "Ġgave": 741,
      "Ġtried": 742,
      "Ġmo": 743,
      "Ġclo": 744,
      "Ġinto": 745,
      "Ġwater": 746,
      "Ġproud": 747,
      "ank": 748,
      "Ġcouldn": 749,
      "Ġover": 750,
      "Ġqu": 751,
      "ause": 752,
      "ate": 753,
      "Ġnever": 754,
      "ump": 755,
      "ty": 756,
      "other": 757,
      "ĠEvery": 758,
      "Ġen": 759,
      "Ġeat": 760,
      "Ġif": 761,
      "ace": 762,
      "Ġroom": 763,
      "Ġplayed": 764,
      "etter": 765,
      "Ġheard": 766,
      "ge": 767,
      "Ġexpl": 768,
      "Ġeach": 769,
      "Ġpick": 770,
      "Ġpret": 771,
      "ion": 772,
      "Ġthis": 773,
      "by": 774,
      "here": 775,
      "dy": 776,
      "ĠWe": 777,
      "Tom": 778,
      "ak": 779,
      "Ġbecause": 780,
      "ĠAnna": 781,
      "Ġhugged": 782,
      "Ġstr": 783,
      "Ġcom": 784,
      "Ġwat": 785,
      "Ġgre": 786,
      "Ġbox": 787,
      "Ġjust": 788,
      "Ġnice": 789,
      "ile": 790,
      "ĠSara": 791,
      "oth": 792,
      "Ġneed": 793,
      "iz": 794,
      "Mom": 795,
      "Ġjo": 796,
      "Ġoff": 797,
      "Ġmany": 798,
      "Ġlong": 799,
      "Ġbear": 800,
      "Ġsmall": 801,
      "Ġfo": 802,
      "Ġbu": 803,
      "ving": 804,
      "Ġsn": 805,
      "ough": 806,
      "Ġlearned": 807,
      "'m": 808,
      "ort": 809,
      "ine": 810,
      "Ġunt": 811,
      "uc": 812,
      "imal": 813,
      "Ġanimal": 814,
      "gry": 815,
      "Ġtry": 816,
      "Ġbetter": 817,
      "ild": 818,
      "sel": 819,
      "Ġuntil": 820,
      "sed": 821,
      "Ġlove": 822,
      "urt": 823,
      "ĠJack": 824,
      "Ġim": 825,
      "em": 826,
      "Ġdre": 827,
      "Ġend": 828,
      "Ġkind": 829,
      "Ġcall": 830,
      "Ġcle": 831,
      "ber": 832,
      "Ġflow": 833,
      "Ġad": 834,
      "Ġbest": 835,
      "urn": 836,
      "vent": 837,
      "ĠHer": 838,
      "He": 839,
      "aut": 840,
      "ĠAnd": 841,
      "ĠSo": 842,
      "Ġfi": 843,
      "ars": 844,
      "Ġpu": 845,
      "ady": 846,
      "Ġcareful": 847,
      "Ġsky": 848,
      "Ġfast": 849,
      "Ġgr": 850,
      "ves": 851,
      "Ġthanked": 852,
      "Ġeven": 853,
      "Ġbeaut": 854,
      "ĠC": 855,
      "Yes": 856,
      "Ġbra": 857,
      "urp": 858,
      "arden": 859,
      "ĠJo": 860,
      "Ġgarden": 861,
      "Ġdon": 862,
      "pt": 863,
      "lly": 864,
      "Ġche": 865,
      "ĠMia": 866,
      "Ġby": 867,
      "self": 868,
      "Th": 869,
      "Ġlots": 870,
      "ies": 871,
      "iny": 872,
      "Ġte": 873,
      "Ġgl": 874,
      "Ġloud": 875,
      "Ġlaughed": 876,
      "Ġfam": 877,
      "Ġjump": 878,
      "ase": 879,
      "Ġbeauti": 880,
      "lew": 881,
      "Ġlist": 882,
      "Ġstill": 883,
      "wn": 884,
      "Ġbeautiful": 885,
      "ĠFrom": 886,
      "rm": 887,
      "Ġhard": 888,
      "Ġway": 889,
      "Ġcome": 890,
      "Ġhurt": 891,
      "Ġwo": 892,
      "Ġanimals": 893,
      "It": 894,
      "ct": 895,
      "Ġra": 896,
      "ĠHis": 897,
      "ast": 898,
      "hes": 899,
      "Ġcol": 900,
      "Ġunder": 901,
      "ĠThen": 902,
      "Ġrem": 903,
      "Åĵ": 904,
      "ning": 905,
      "Ġsafe": 906,
      "Ġstay": 907,
      "ect": 908,
      "be": 909,
      "Ġlet": 910,
      "Ġlived": 911,
      "Ġboth": 912,
      "Tim": 913,
      "ool": 914,
      "Ġcu": 915,
      "ople": 916,
      "Ġimp": 917,
      "Ġbrave": 918,
      "Ġfamily": 919,
      "Ġits": 920,
      "kay": 921,
      "Ġbad": 922,
      "ob": 923,
      "Ġdan": 924,
      "Ġred": 925,
      "Ġstor": 926,
      "ished": 927,
      "Ġbook": 928,
      "ane": 929,
      "Ġtwo": 930,
      "When": 931,
      "Ġfin": 932,
      "ree": 933,
      "Ġpeople": 934,
      "ucy": 935,
      "Ġshould": 936,
      "urpr": 937,
      "ock": 938,
      "Ġcalled": 939,
      "ĠÃ¢": 940,
      "Ġflew": 941,
      "Ġfly": 942,
      "Ġpic": 943,
      "igh": 944,
      "Ġwalked": 945,
      "Ġsurpr": 946,
      "Ġangry": 947,
      "Ġsoon": 948,
      "Ġfore": 949,
      "ĠWhen": 950,
      "Ġdoll": 951,
      "led": 952,
      "Ġkept": 953,
      "Ġclean": 954,
      "Ġshare": 955,
      "fore": 956,
      "ised": 957,
      "Ġrock": 958,
      "Ġpretty": 959,
      "No": 960,
      "Ġdra": 961,
      "hn": 962,
      "Ġgoing": 963,
      "ip": 964,
      "Ġdoor": 965,
      "Let": 966,
      "Ġcon": 967,
      "ĠP": 968,
      "Ġkeep": 969,
      "Ġground": 970,
      "Ġshiny": 971,
      "Ġopened": 972,
      "dded": 973,
      "Ġadvent": 974,
      "ummy": 975,
      "Ġreal": 976,
      "Ġnow": 977,
      "Ġwind": 978,
      "Ġcry": 979,
      "illy": 980,
      "Ġexplore": 981,
      "age": 982,
      "Ġcre": 983,
      "Ġsto": 984,
      "Ben": 985,
      "Ġide": 986,
      "Ġbefore": 987,
      "Ġnoise": 988,
      "Ġfr": 989,
      "ture": 990,
      "Ġcolor": 991,
      "Ġturn": 992,
      "ary": 993,
      "les": 994,
      "so": 995,
      "Ġfar": 996,
      "âĤ¬â": 997,
      "Ġalso": 998,
      "Ġpicked": 999,
      "Ġfeeling": 1000,
      "ied": 1001,
      "Ġwhile": 1002,
      "Ġey": 1003,
      "Ġidea": 1004,
      "imb": 1005,
      "oon": 1006,
      "oy": 1007,
      "Ġclimb": 1008,
      "Ġnext": 1009,
      "ff": 1010,
      "thing": 1011,
      "Ġbed": 1012,
      "Ġun": 1013,
      "Ġwr": 1014,
      "What": 1015,
      "eet": 1016,
      "Ġthr": 1017,
      "Ġhas": 1018,
      "Ġwalking": 1019,
      "ĠLucy": 1020,
      "Ġsmile": 1021,
      "uch": 1022,
      "Ġpicture": 1023,
      "That": 1024,
      "ger": 1025,
      "iced": 1026,
      "Ġtruck": 1027,
      "Ġnodded": 1028,
      "Ġadventure": 1029,
      "th": 1030,
      "Ġma": 1031,
      "aybe": 1032,
      "Ħ¢": 1033,
      "âĤ¬âĦ¢": 1034,
      "kes": 1035,
      "Ġbeing": 1036,
      "ember": 1037,
      "ĠG": 1038,
      "Thank": 1039,
      "ious": 1040,
      "joy": 1041,
      "ac": 1042,
      "Ġclos": 1043,
      "Ġgive": 1044,
      "Ġgi": 1045,
      "ting": 1046,
      "Ġfood": 1047,
      "Ġtra": 1048,
      "Ġlooking": 1049,
      "Ġwait": 1050,
      "Ġlisten": 1051,
      "ĠDad": 1052,
      "Ġstopped": 1053,
      "Ġblue": 1054,
      "ized": 1055,
      "ught": 1056,
      "Ġtow": 1057,
      "Ġremember": 1058,
      "Ġbre": 1059,
      "Ġdif": 1060,
      "Ġafter": 1061,
      "Ġbro": 1062,
      "Ġhands": 1063,
      "ĠSuddenly": 1064,
      "Ġnoticed": 1065,
      "Ġthink": 1066,
      "maz": 1067,
      "Ġeyes": 1068,
      "Ġamaz": 1069,
      "Ġdel": 1070,
      "Ġwalk": 1071,
      "able": 1072,
      "Ġquick": 1073,
      "Ġown": 1074,
      "Ġenjoy": 1075,
      "Ġforest": 1076,
      "She": 1077,
      "Ġdis": 1078,
      "Ġslide": 1079,
      "Ġgreat": 1080,
      "Ġever": 1081,
      "Ġshowed": 1082,
      "Ġrepl": 1083,
      "Ġwatch": 1084,
      "irst": 1085,
      "Ġstrong": 1086,
      "Ġflowers": 1087,
      "Ġapp": 1088,
      "bbit": 1089,
      "ted": 1090,
      "Ġeveryone": 1091,
      "Ġimport": 1092,
      "Ġwonder": 1093,
      "Ġrain": 1094,
      "Ġfish": 1095,
      "Ġwork": 1096,
      "llow": 1097,
      "Ġvo": 1098,
      "Ġac": 1099,
      "Ġtal": 1100,
      "Suddenly": 1101,
      "Ġboat": 1102,
      "Ġnear": 1103,
      "Ġstick": 1104,
      "Ġask": 1105,
      "ĠSp": 1106,
      "Ġokay": 1107,
      "Ġhead": 1108,
      "Ġimportant": 1109,
      "Ġwhere": 1110,
      "Ġshout": 1111,
      "Ġmean": 1112,
      "Ġrabbit": 1113,
      "gan": 1114,
      "Ġright": 1115,
      "Ġplace": 1116,
      "Ġus": 1117,
      "bye": 1118,
      "Ġsound": 1119,
      "bbed": 1120,
      "Ġquickly": 1121,
      "Ġyell": 1122,
      "Ġfollow": 1123,
      "Ġreplied": 1124,
      "Ġuse": 1125,
      "Ġbright": 1126,
      "lease": 1127,
      "ĠBob": 1128,
      "Ġwatched": 1129,
      "Ġdress": 1130,
      "Ġde": 1131,
      "fere": 1132,
      "ange": 1133,
      "Ġbecame": 1134,
      "day": 1135,
      "ĠN": 1136,
      "Ġdiffere": 1137,
      "ath": 1138,
      "Ġmor": 1139,
      "ered": 1140,
      "Ġar": 1141,
      "co": 1142,
      "Ġsure": 1143,
      "We": 1144,
      "ndma": 1145,
      "Ġcake": 1146,
      "Ġchild": 1147,
      "Ġhigh": 1148,
      "Ġcuri": 1149,
      "Ġbeen": 1150,
      "ĠR": 1151,
      "Ġmag": 1152,
      "ount": 1153,
      "Ġstore": 1154,
      "Ġour": 1155,
      "Ġwarm": 1156,
      "Ġye": 1157,
      "aught": 1158,
      "Ġsqu": 1159,
      "Ġhop": 1160,
      "Ġface": 1161,
      "Ġgoodbye": 1162,
      "Ġforg": 1163,
      "more": 1164,
      "Ġdifferent": 1165,
      "Ġanymore": 1166,
      "Ġcloser": 1167,
      "Ġdoes": 1168,
      "Anna": 1169,
      "Look": 1170,
      "So": 1171,
      "leep": 1172,
      "ng": 1173,
      "Ġcurious": 1174,
      "Ġcook": 1175,
      "Ġtell": 1176,
      "Ġam": 1177,
      "Ġvoice": 1178,
      "Ġnight": 1179,
      "itc": 1180,
      "ila": 1181,
      "imes": 1182,
      "Ġpain": 1183,
      "ĠSue": 1184,
      "Ġbel": 1185,
      "ĠSpot": 1186,
      "ired": 1187,
      "Ġbutter": 1188,
      "Ġopen": 1189,
      "ached": 1190,
      "Ġfav": 1191,
      "Ġpa": 1192,
      "Her": 1193,
      "Ġhelped": 1194,
      "Ġfirst": 1195,
      "Ġfell": 1196,
      "ull": 1197,
      "Ġcont": 1198,
      "Sara": 1199,
      "ĠMommy": 1200,
      "Ġhappened": 1201,
      "Ġz": 1202,
      "ĠTh": 1203,
      "Ġlea": 1204,
      "Ġthree": 1205,
      "Ġsees": 1206,
      "iss": 1207,
      "Can": 1208,
      "Ġkitc": 1209,
      "Ġkitchen": 1210,
      "Jo": 1211,
      "Ġpull": 1212,
      "Ġfire": 1213,
      "Ġflo": 1214,
      "Ġbus": 1215,
      "Ġbirds": 1216,
      "Ġblock": 1217,
      "Ġgrabbed": 1218,
      "Ġsweet": 1219,
      "After": 1220,
      "Ġstory": 1221,
      "Ġhere": 1222,
      "Ġonly": 1223,
      "Ġkid": 1224,
      "Ġbrother": 1225,
      "Ġdr": 1226,
      "Ġsand": 1227,
      "unny": 1228,
      "Ġglad": 1229,
      "Ġbit": 1230,
      "Ġru": 1231,
      "Ġgrass": 1232,
      "Ġrealized": 1233,
      "ppy": 1234,
      "ater": 1235,
      "Ġjumped": 1236,
      "orn": 1237,
      "Ġbeh": 1238,
      "Ġmon": 1239,
      "Ġper": 1240,
      "Ġdraw": 1241,
      "Ġstop": 1242,
      "Ġreached": 1243,
      "Ġcra": 1244,
      "ĠEveryone": 1245,
      "Ġsing": 1246,
      "ins": 1247,
      "Ġhaving": 1248,
      "Ġcr": 1249,
      "Ġmess": 1250,
      "zy": 1251,
      "ĠDo": 1252,
      "nts": 1253,
      "Ġrest": 1254,
      "uff": 1255,
      "Ġba": 1256,
      "Ġthrough": 1257,
      "Ġtri": 1258,
      "Ġprin": 1259,
      "Ġate": 1260,
      "ĠAs": 1261,
      "ĠJane": 1262,
      "Ġsoft": 1263,
      "Ġless": 1264,
      "Ġpap": 1265,
      "isy": 1266,
      "Ġready": 1267,
      "Ġyummy": 1268,
      "where": 1269,
      "Ġworld": 1270,
      "'re": 1271,
      "Ġhat": 1272,
      "akes": 1273,
      "Ġgame": 1274,
      "Ġfix": 1275,
      "Ġreally": 1276,
      "ĠLet": 1277,
      "Ġlady": 1278,
      "Ġshouted": 1279,
      "Ġpare": 1280,
      "Ġfavor": 1281,
      "Ġbegan": 1282,
      "Ġfavorite": 1283,
      "Ġhimself": 1284,
      "Ġunderst": 1285,
      "Ġcut": 1286,
      "Ġtired": 1287,
      "ĠSarah": 1288,
      "Ġmagic": 1289,
      "Ġduck": 1290,
      "fully": 1291,
      "Ġpretend": 1292,
      "ken": 1293,
      "Ġused": 1294,
      "Ġmum": 1295,
      "Ġtast": 1296,
      "ather": 1297,
      "Ġbutterf": 1298,
      "sh": 1299,
      "Ġthing": 1300,
      "Ġdone": 1301,
      "Ġworry": 1302,
      "Ġcoming": 1303,
      "ign": 1304,
      "Ġmaking": 1305,
      "illed": 1306,
      "Ġcatch": 1307,
      "ĠCan": 1308,
      "Ġkids": 1309,
      "Ġfunny": 1310,
      "Ġname": 1311,
      "Ġpus": 1312,
      "eddy": 1313,
      "Wow": 1314,
      "Ġseen": 1315,
      "As": 1316,
      "ster": 1317,
      "Ġpond": 1318,
      "Ġlooks": 1319,
      "Ġcars": 1320,
      "ĠThat": 1321,
      "Ġcried": 1322,
      "Ġfro": 1323,
      "Ġste": 1324,
      "Timmy": 1325,
      "Ġanother": 1326,
      "ient": 1327,
      "Ġtop": 1328,
      "air": 1329,
      "olly": 1330,
      "Ġwhy": 1331,
      "Mommy": 1332,
      "Ġprom": 1333,
      "Ġwaved": 1334,
      "Ġflower": 1335,
      "Ġbag": 1336,
      "Ġpart": 1337,
      "Ġbunny": 1338,
      "Ġhair": 1339,
      "Ġparents": 1340,
      "Ġtouch": 1341,
      "bo": 1342,
      "ards": 1343,
      "Don": 1344,
      "Ġpaper": 1345,
      "Ġdin": 1346,
      "Ġlight": 1347,
      "Ġgreen": 1348,
      "Ġdri": 1349,
      "Ġcool": 1350,
      "Ġdelic": 1351,
      "Ġdro": 1352,
      "Ġlesson": 1353,
      "Ġhole": 1354,
      "Ġswim": 1355,
      "ĠJohn": 1356,
      "hy": 1357,
      "ĠJoe": 1358,
      "Ġtrees": 1359,
      "iver": 1360,
      "Ġsurprise": 1361,
      "Ġyellow": 1362,
      "Ġremembered": 1363,
      "Ġbehind": 1364,
      "Ġfloor": 1365,
      "oney": 1366,
      "Ġhold": 1367,
      "ely": 1368,
      "ued": 1369,
      "Ġworked": 1370,
      "mer": 1371,
      "Ġfull": 1372,
      "Ġthank": 1373,
      "Ġrunning": 1374,
      "rel": 1375,
      "Ġhopped": 1376,
      "ation": 1377,
      "Ġsleep": 1378,
      "andy": 1379,
      "Ġwished": 1380,
      "ssed": 1381,
      "Ġspot": 1382,
      "Ġsmell": 1383,
      "Ġset": 1384,
      "ike": 1385,
      "Ġblocks": 1386,
      "Ġcold": 1387,
      "Ġlost": 1388,
      "Ġsat": 1389,
      "Ġhappily": 1390,
      "Ġread": 1391,
      "Ġwear": 1392,
      "Ġdoing": 1393,
      "Ġneeded": 1394,
      "Ġdream": 1395,
      "Ġdark": 1396,
      "Ġmouse": 1397,
      "Ġstre": 1398,
      "Ġbow": 1399,
      "aisy": 1400,
      "Ġwood": 1401,
      "Ġslow": 1402,
      "Ġlaugh": 1403,
      "ren": 1404,
      "Ġbutterfly": 1405,
      "Ġsho": 1406,
      "Ġcarefully": 1407,
      "Sam": 1408,
      "Ġtall": 1409,
      "Ġyears": 1410,
      "Ġleft": 1411,
      "Ġ-": 1412,
      "Ġlikes": 1413,
      "Ġcla": 1414,
      "Ġsurprised": 1415,
      "Ġhill": 1416,
      "Ġwindow": 1417,
      "Ġfrog": 1418,
      "Ġswing": 1419,
      "Ġenjoyed": 1420,
      "Ġheld": 1421,
      "Ġfinished": 1422,
      "uit": 1423,
      "Ġsnow": 1424,
      "Ġhear": 1425,
      "Ġmove": 1426,
      "ĠAfter": 1427,
      "Ġbuy": 1428,
      "ens": 1429,
      "\".": 1430,
      "Ġwrong": 1431,
      "Ġice": 1432,
      "Ġperf": 1433,
      "John": 1434,
      "ined": 1435,
      "Ġfollowed": 1436,
      "Ġair": 1437,
      "inally": 1438,
      "Ġarri": 1439,
      "Ġlion": 1440,
      "ul": 1441,
      "ĠBenny": 1442,
      "Ġfair": 1443,
      "Ġherself": 1444,
      "Ġhid": 1445,
      "ĠIn": 1446,
      "Ġanything": 1447,
      "Ġcontin": 1448,
      "Hell": 1449,
      "Hello": 1450,
      "Ġhun": 1451,
      "Ġclose": 1452,
      "Ġdir": 1453,
      "Ġchildren": 1454,
      "Ġbug": 1455,
      "Ġfriendly": 1456,
      "cess": 1457,
      "Ġcast": 1458,
      "Ġrel": 1459,
      "Ġtable": 1460,
      "asure": 1461,
      "Ġbuild": 1462,
      "ĠSally": 1463,
      "Ġarm": 1464,
      "Ġwonderful": 1465,
      "Ġforgot": 1466,
      "Ġmight": 1467,
      "Ġarrived": 1468,
      "ds": 1469,
      "ield": 1470,
      "Ġunderstand": 1471,
      "Ġdelicious": 1472,
      "Ġagre": 1473,
      "Ġel": 1474,
      "Ġtight": 1475,
      "Ġhot": 1476,
      "Ġplease": 1477,
      "Ġcolors": 1478,
      "Ġgrandma": 1479,
      "Ġsomeone": 1480,
      "ner": 1481,
      "Ġsong": 1482,
      "Ġcount": 1483,
      "Ġbooks": 1484,
      "Ġfilled": 1485,
      "Ġgone": 1486,
      "Ġcontinued": 1487,
      "Ġbroken": 1488,
      "Ġable": 1489,
      "Then": 1490,
      "Ġleaves": 1491,
      "Ġscre": 1492,
      "ĠNow": 1493,
      "Ġgent": 1494,
      "av": 1495,
      "Ġelse": 1496,
      "ĠThere": 1497,
      "Ġwants": 1498,
      "Ġcreat": 1499,
      "ask": 1500,
      "sp": 1501,
      "ĠLila": 1502,
      "Ġvis": 1503,
      "Ġwall": 1504,
      "lf": 1505,
      "From": 1506,
      "ĠEm": 1507,
      "ey": 1508,
      "Ġyes": 1509,
      "Ġbaby": 1510,
      "uffy": 1511,
      "Ġpink": 1512,
      "atter": 1513,
      "Ġbreak": 1514,
      "room": 1515,
      "man": 1516,
      "ich": 1517,
      "Ġpoin": 1518,
      "gon": 1519,
      "Ġamazing": 1520,
      "'ll": 1521,
      "ries": 1522,
      "Jack": 1523,
      "Ġmar": 1524,
      "Ġgetting": 1525,
      "ĠMaybe": 1526,
      "icy": 1527,
      "ĠDaisy": 1528,
      "Ġenough": 1529,
      "Ġpictures": 1530,
      "Ġfight": 1531,
      "OK": 1532,
      "Ġwhite": 1533,
      "oup": 1534,
      "Ġcomp": 1535,
      "Ġcastle": 1536,
      "Ġdinner": 1537,
      "Ġagreed": 1538,
      "row": 1539,
      "irrel": 1540,
      "Ġmus": 1541,
      "Ġmoment": 1542,
      "ross": 1543,
      "Ġmother": 1544,
      "Ġstayed": 1545,
      "Ġfall": 1546,
      "ash": 1547,
      "Ġmorning": 1548,
      "Ġcookies": 1549,
      "ced": 1550,
      "Ġscary": 1551,
      "Ġtrying": 1552,
      "Ġfinally": 1553,
      "Ġclimbed": 1554,
      "Ġfur": 1555,
      "Ġsometimes": 1556,
      "Ġsail": 1557,
      "Ġothers": 1558,
      "ĠK": 1559,
      "Ġwet": 1560,
      "Ġpi": 1561,
      "Ġju": 1562,
      "Ġsmiles": 1563,
      "Ġhungry": 1564,
      "ctor": 1565,
      "Ġsquirrel": 1566,
      "Ġtalk": 1567,
      "ence": 1568,
      "ons": 1569,
      "Ġclot": 1570,
      "Ġmet": 1571,
      "Ġclothes": 1572,
      "At": 1573,
      "Ġbrought": 1574,
      "ama": 1575,
      "ister": 1576,
      "red": 1577,
      "oom": 1578,
      "Ġturned": 1579,
      "ĠThis": 1580,
      "Ġroll": 1581,
      "Ġperfect": 1582,
      "Ġdaddy": 1583,
      "Ġmakes": 1584,
      "Ġcream": 1585,
      "ĠBilly": 1586,
      "This": 1587,
      "Ġfew": 1588,
      "Ġlistened": 1589,
      "oring": 1590,
      "Ġtail": 1591,
      "ee": 1592,
      "Ġeverything": 1593,
      "ance": 1594,
      "Ġwasn": 1595,
      "Ġspl": 1596,
      "Ġstrange": 1597,
      "rot": 1598,
      "Ġsear": 1599,
      "Ġballoon": 1600,
      "Ġbeach": 1601,
      "Ġpol": 1602,
      "Ġpuppy": 1603,
      "Ġjoy": 1604,
      "Ġsit": 1605,
      "ated": 1606,
      "ower": 1607,
      "Ġride": 1608,
      "der": 1609,
      "His": 1610,
      "zz": 1611,
      "Ġwaited": 1612,
      "Ġspark": 1613,
      "ĠJen": 1614,
      "Ġthre": 1615,
      "ĠWhat": 1616,
      "Ġmusic": 1617,
      "wl": 1618,
      "Ġamazed": 1619,
      "ever": 1620,
      "ĠGra": 1621,
      "Ġalone": 1622,
      "ĠTommy": 1623,
      "os": 1624,
      "amp": 1625,
      "pping": 1626,
      "Ġvisit": 1627,
      "elc": 1628,
      "Ġsilly": 1629,
      "Ġdanger": 1630,
      "ucky": 1631,
      "Ġteddy": 1632,
      "key": 1633,
      "ott": 1634,
      "Ġasks": 1635,
      "Ġpet": 1636,
      "Ġwoods": 1637,
      "ĠTo": 1638,
      "ope": 1639,
      "ix": 1640,
      "Ġdeep": 1641,
      "ang": 1642,
      "Ġhide": 1643,
      "eter": 1644,
      "Ġgrow": 1645,
      "Oh": 1646,
      "Ġleave": 1647,
      "Ġsister": 1648,
      "Ġside": 1649,
      "Ġpie": 1650,
      "ugg": 1651,
      "Ġcloud": 1652,
      "amed": 1653,
      "Ġflying": 1654,
      "med": 1655,
      "Ġlake": 1656,
      "Ġpulled": 1657,
      "Max": 1658,
      "Ġfox": 1659,
      "Ġpromised": 1660,
      "Ġpat": 1661,
      "gg": 1662,
      "ĠFl": 1663,
      "Ġdance": 1664,
      "Ġtowards": 1665,
      "eces": 1666,
      "Ġtreasure": 1667,
      "me": 1668,
      "Ġsec": 1669,
      "Ġfield": 1670,
      "ames": 1671,
      "ph": 1672,
      "Ġpieces": 1673,
      "ises": 1674,
      "Ġplan": 1675,
      "Maybe": 1676,
      "up": 1677,
      "Ġruns": 1678,
      "Ġshared": 1679,
      "Ġbigger": 1680,
      "cket": 1681,
      "ained": 1682,
      "Ġwon": 1683,
      "Ġthinks": 1684,
      "Ġem": 1685,
      "Ġland": 1686,
      "Ġmoral": 1687,
      "thy": 1688,
      "Ġtreat": 1689,
      "Okay": 1690,
      "Ġowner": 1691,
      "Ġliving": 1692,
      "Ġpen": 1693,
      "Ġele": 1694,
      "Ġbran": 1695,
      "Ġgrate": 1696,
      "ĠAll": 1697,
      "Ġbott": 1698,
      "Ġdolls": 1699,
      "Ġshar": 1700,
      "Ġcandy": 1701,
      "igg": 1702,
      "avy": 1703,
      "Ġparty": 1704,
      "Ġgu": 1705,
      "Ġeverywhere": 1706,
      "Ġgrateful": 1707,
      "cle": 1708,
      "set": 1709,
      "Ġcup": 1710,
      "Ġblank": 1711,
      "Ġbike": 1712,
      "Ġslowly": 1713,
      "outh": 1714,
      "Ġpaint": 1715,
      "Ġjob": 1716,
      "Ġsuch": 1717,
      "sw": 1718,
      "Ġbelie": 1719,
      "Ġworried": 1720,
      "Ġwelc": 1721,
      "Ġmouth": 1722,
      "ĠAmy": 1723,
      "Ġjoin": 1724,
      "Ġblanket": 1725,
      "Ġfaster": 1726,
      "Ġplant": 1727,
      "fort": 1728,
      "ret": 1729,
      "ually": 1730,
      "Ġansw": 1731,
      "Ġbroke": 1732,
      "Ġmoney": 1733,
      "unch": 1734,
      "ling": 1735,
      "iet": 1736,
      "Ġshap": 1737,
      "Ġgift": 1738,
      "Ġsmart": 1739,
      "Ġreach": 1740,
      "Ġmagical": 1741,
      "Ġsnack": 1742,
      "Ġbar": 1743,
      "Ġcolorful": 1744,
      "ire": 1745,
      "ident": 1746,
      "Ġhelping": 1747,
      "ased": 1748,
      "Ġprincess": 1749,
      "Ġdoctor": 1750,
      "Ġcho": 1751,
      "Ġrace": 1752,
      "Ġdragon": 1753,
      "Ġmix": 1754,
      "Ġacc": 1755,
      "Ġriver": 1756,
      "ĠJim": 1757,
      "Sure": 1758,
      "Ġnap": 1759,
      "Ġpro": 1760,
      "Ġsign": 1761,
      "less": 1762,
      "ol": 1763,
      "Ġquiet": 1764,
      "Ġcrying": 1765,
      "orm": 1766,
      "ipped": 1767,
      "Ġblack": 1768,
      "ze": 1769,
      "app": 1770,
      "Ġmost": 1771,
      "Ġdangerous": 1772,
      "Ġstepped": 1773,
      "Ġtrain": 1774,
      "Ġatt": 1775,
      "Ġbowl": 1776,
      "Ġfarmer": 1777,
      "Ġheavy": 1778,
      "Ġpot": 1779,
      "Ġmonster": 1780,
      "ere": 1781,
      "ored": 1782,
      "Ġje": 1783,
      "ming": 1784,
      "bble": 1785,
      "Ġtwins": 1786,
      "Ġwords": 1787,
      "vel": 1788,
      "Ġacross": 1789,
      "Ġdirty": 1790,
      "ear": 1791,
      "Ġdisapp": 1792,
      "Ġeating": 1793,
      "Ġsame": 1794,
      "Ġstuck": 1795,
      "ĠJill": 1796,
      "Ġclosed": 1797,
      "ĠMr": 1798,
      "Ġfruit": 1799,
      "Ġthrew": 1800,
      "Ġmust": 1801,
      "Ġtower": 1802,
      "Ġwouldn": 1803,
      "Ġbuck": 1804,
      "cked": 1805,
      "ĠMolly": 1806,
      "Ġspr": 1807,
      "Ġhig": 1808,
      "Ġwin": 1809,
      "Ġaccident": 1810,
      "Ġcray": 1811,
      "Ġmonkey": 1812,
      "Ġcarrot": 1813,
      "Why": 1814,
      "ord": 1815,
      "Ġbath": 1816,
      "Ġheal": 1817,
      "Ġfeels": 1818,
      "Ġteac": 1819,
      "iting": 1820,
      "Ġbite": 1821,
      "eared": 1822,
      "Hi": 1823,
      "asket": 1824,
      "umb": 1825,
      "Ġpushed": 1826,
      "Ġbutt": 1827,
      "Ġtown": 1828,
      "chool": 1829,
      "Ġpast": 1830,
      "Ġbasket": 1831,
      "Ġheart": 1832,
      "Ġhoped": 1833,
      "br": 1834,
      "Ġwithout": 1835,
      "Ġhit": 1836,
      "Ġcoll": 1837,
      "Ġclapped": 1838,
      "Ġpack": 1839,
      "Ġbelieve": 1840,
      "Ġstand": 1841,
      "Ġpers": 1842,
      "Ġforget": 1843,
      "Mia": 1844,
      "Ġschool": 1845,
      "Ġfairy": 1846,
      "Ġcheered": 1847,
      "phant": 1848,
      "Ġbee": 1849,
      "Ġsmo": 1850,
      "ĠFluffy": 1851,
      "Ġfence": 1852,
      "Ġlon": 1853,
      "de": 1854,
      "orrow": 1855,
      "Ġcour": 1856,
      "Ġyard": 1857,
      "Ġbrown": 1858,
      "Ġchair": 1859,
      "ĠDaddy": 1860,
      "Ġdrove": 1861,
      "ract": 1862,
      "Ġadventures": 1863,
      "Ġnoises": 1864,
      "ier": 1865,
      "ventually": 1866,
      "Ġhigher": 1867,
      "Ġlonely": 1868,
      "ass": 1869,
      "Ġca": 1870,
      "Ġelephant": 1871,
      "Ġteacher": 1872,
      "Ġtoday": 1873,
      "ors": 1874,
      "ney": 1875,
      "Ġpocket": 1876,
      "Ġupset": 1877,
      "cy": 1878,
      "Ġturns": 1879,
      "Ġswings": 1880,
      "Ġgentle": 1881,
      "Ġlonger": 1882,
      "Finally": 1883,
      "ek": 1884,
      "Ġwings": 1885,
      "Ġwelcome": 1886,
      "ho": 1887,
      "Ġgames": 1888,
      "Ġcourse": 1889,
      "Ġben": 1890,
      "Ġexplained": 1891,
      "Ġfree": 1892,
      "Ġneck": 1893,
      "Ġsuddenly": 1894,
      "Ġleg": 1895,
      "Ġjour": 1896,
      "Ġsecret": 1897,
      "Lila": 1898,
      "ead": 1899,
      "Ġstar": 1900,
      "Ġve": 1901,
      "issed": 1902,
      "ountain": 1903,
      "Ġwhe": 1904,
      "Ġdry": 1905,
      "Ġcorn": 1906,
      "Ġsoup": 1907,
      "Ġbring": 1908,
      "Ġshop": 1909,
      "Ġinst": 1910,
      "Ġhappen": 1911,
      "Ġneigh": 1912,
      "Ġdropped": 1913,
      "Ġplac": 1914,
      "Ġhugs": 1915,
      "yard": 1916,
      "Ġtrou": 1917,
      "Ġpiece": 1918,
      "weet": 1919,
      "Ġmin": 1920,
      "Ġthrow": 1921,
      "Ġneighb": 1922,
      "Ġswam": 1923,
      "ible": 1924,
      "Ġstories": 1925,
      "Ġsang": 1926,
      "Ġbackyard": 1927,
      "itting": 1928,
      "ush": 1929,
      "ĠEmma": 1930,
      "pper": 1931,
      "ment": 1932,
      "Ġwish": 1933,
      "Ġrocks": 1934,
      "Ġbucket": 1935,
      "Ġwell": 1936,
      "Ġlate": 1937,
      "Ġnaught": 1938,
      "Ġapple": 1939,
      "Ġbelong": 1940,
      "Ġowl": 1941,
      "Ġph": 1942,
      "ches": 1943,
      "Ġnaughty": 1944,
      "ces": 1945,
      "Ġtaking": 1946,
      "Ġorange": 1947,
      "Ġalong": 1948,
      "Ġlunch": 1949,
      "ocked": 1950,
      "Ġdrink": 1951,
      "fused": 1952,
      "ung": 1953,
      "Ġjar": 1954,
      "Ġexploring": 1955,
      "Ġexp": 1956,
      "Ġcou": 1957,
      "Ġsea": 1958,
      "Ġes": 1959,
      "Ġyoung": 1960,
      "bow": 1961,
      "Ġdist": 1962,
      "Ġseemed": 1963,
      "Ġsinging": 1964,
      "oun": 1965,
      "Ġshook": 1966,
      "Ġmat": 1967,
      "Ġcaught": 1968,
      "Ġmoved": 1969,
      "Ġwar": 1970,
      "Ġnearby": 1971,
      "Ġpig": 1972,
      "Ġwise": 1973,
      "Ġkey": 1974,
      "Ġshoes": 1975,
      "Ġstars": 1976,
      "Ġtiny": 1977,
      "Ġthough": 1978,
      "Ġwoke": 1979,
      "Ġtom": 1980,
      "Ġdes": 1981,
      "Ġmiss": 1982,
      "Ġaf": 1983,
      "llo": 1984,
      "ĠGrandma": 1985,
      "Ġmail": 1986,
      "ail": 1987,
      "ions": 1988,
      "vered": 1989,
      "Do": 1990,
      "cer": 1991,
      "Ġsick": 1992,
      "col": 1993,
      "ĠThank": 1994,
      "Ġbench": 1995,
      "let": 1996,
      "Ġcarry": 1997,
      "ape": 1998,
      "Ġrelie": 1999,
      "Ġresp": 2000,
      "Ġsu": 2001,
      "Ġnest": 2002,
      "Ġshapes": 2003,
      "cing": 2004,
      "ittens": 2005,
      "sy": 2006,
      "Ġrainbow": 2007,
      "Ġarms": 2008,
      "idge": 2009,
      "Ġbranch": 2010,
      "Ġkite": 2011,
      "Ġmine": 2012,
      "Ġdriver": 2013,
      "Ġjuice": 2014,
      "Ġtakes": 2015,
      "Ġbusy": 2016,
      "Ġob": 2017,
      "aughter": 2018,
      "raid": 2019,
      "Ġafraid": 2020,
      "ĠMary": 2021,
      "Ġwondered": 2022,
      "itch": 2023,
      "Ġmad": 2024,
      "ward": 2025,
      "Ġcir": 2026,
      "Ġsitting": 2027,
      "ining": 2028,
      "Ġcow": 2029,
      "Ġmark": 2030,
      "ese": 2031,
      "Ġmil": 2032,
      "cks": 2033,
      "Ġstreet": 2034,
      "And": 2035,
      "Ġcomes": 2036,
      "Ġinv": 2037,
      "Ġaccidentally": 2038,
      "Ġround": 2039,
      "irt": 2040,
      "Ġnose": 2041,
      "Ġdisco": 2042,
      "Ġking": 2043,
      "Ġforever": 2044,
      "Ġ3": 2045,
      "Later": 2046,
      "Ġyear": 2047,
      "Ġfarm": 2048,
      "Ġwhist": 2049,
      "Ġband": 2050,
      "Ġpeace": 2051,
      "Ġdaughter": 2052,
      "Ġlift": 2053,
      "Ġsounds": 2054,
      "sting": 2055,
      "Ġstu": 2056,
      "ĠFinally": 2057,
      "to": 2058,
      "Ġegg": 2059,
      "Ġcute": 2060,
      "bby": 2061,
      "thday": 2062,
      "ball": 2063,
      "Ġexciting": 2064,
      "adow": 2065,
      "Ġcozy": 2066,
      "Ġfit": 2067,
      "ity": 2068,
      "Ġletter": 2069,
      "Ġpurp": 2070,
      "ĠInside": 2071,
      "Ġcoat": 2072,
      "Ġwra": 2073,
      "Ġboun": 2074,
      "Ġpower": 2075,
      "ours": 2076,
      "Ġrelieved": 2077,
      "Ġhello": 2078,
      "Ġnothing": 2079,
      "Ġpatient": 2080,
      "Ġintere": 2081,
      "Ġholding": 2082,
      "Ġlaughing": 2083,
      "Ġhuge": 2084,
      "Ġjourney": 2085,
      "Of": 2086,
      "Ġmist": 2087,
      "ĠTweet": 2088,
      "shine": 2089,
      "Ġimag": 2090,
      "Ġspoon": 2091,
      "ĠSoon": 2092,
      "Ġswimming": 2093,
      "Ġgigg": 2094,
      "itten": 2095,
      "Ġmilk": 2096,
      "Ġdays": 2097,
      "Ġsunshine": 2098,
      "Ġlife": 2099,
      "Ġcomfort": 2100,
      "Ġfing": 2101,
      "Ġpurple": 2102,
      "gged": 2103,
      "uched": 2104,
      "Ġtouched": 2105,
      "Ġlater": 2106,
      "ĠCome": 2107,
      "ĠMama": 2108,
      "Ġinstead": 2109,
      "Ġact": 2110,
      "Ġbirthday": 2111,
      "eth": 2112,
      "ĠO": 2113,
      "Ġroad": 2114,
      "Ġcheese": 2115,
      "Ġinc": 2116,
      "fish": 2117,
      "ts": 2118,
      "Ġear": 2119,
      "Ġsunny": 2120,
      "unt": 2121,
      "alm": 2122,
      "Ġret": 2123,
      "Ġgives": 2124,
      "Ġsearched": 2125,
      "ped": 2126,
      "Ġbought": 2127,
      "Ġfan": 2128,
      "Ġbread": 2129,
      "Ġpointed": 2130,
      "ness": 2131,
      "Ġanyone": 2132,
      "Ġonto": 2133,
      "Ġbottle": 2134,
      "board": 2135,
      "Ġpres": 2136,
      "Ġducks": 2137,
      "ize": 2138,
      "Ġstorm": 2139,
      "sc": 2140,
      "ose": 2141,
      "Ġhope": 2142,
      "Ġreturn": 2143,
      "Ġlucky": 2144,
      "Ġplane": 2145,
      "ĠSammy": 2146,
      "Ġtasty": 2147,
      "Ġcave": 2148,
      "Ġcreature": 2149,
      "Ġwatching": 2150,
      "blem": 2151,
      "Ġgrab": 2152,
      "Ġpudd": 2153,
      "Hey": 2154,
      "Ġproblem": 2155,
      "Ġce": 2156,
      "Ġsmiling": 2157,
      "ndp": 2158,
      "Ġrope": 2159,
      "Ġkick": 2160,
      "Ġspo": 2161,
      "Ġcrayons": 2162,
      "Ġshell": 2163,
      "Ġeas": 2164,
      "Ġsharp": 2165,
      "aur": 2166,
      "Ġspid": 2167,
      "els": 2168,
      "Ġmeet": 2169,
      "Ġpromise": 2170,
      "Ġsnowman": 2171,
      "Ġperson": 2172,
      "Ġhoney": 2173,
      "Ġdanced": 2174,
      "ond": 2175,
      "Ġpuzz": 2176,
      "epend": 2177,
      "Ġinteresting": 2178,
      "ten": 2179,
      "Ġtalked": 2180,
      "Ġsandw": 2181,
      "Ġbutton": 2182,
      "Ġquest": 2183,
      "Ġcollect": 2184,
      "og": 2185,
      "ove": 2186,
      "Ġzoom": 2187,
      "Ġtrouble": 2188,
      "Ġwide": 2189,
      "Ġcard": 2190,
      "Ġkiss": 2191,
      "ometimes": 2192,
      "itty": 2193,
      "Bob": 2194,
      "Ġsmelled": 2195,
      "Ġspin": 2196,
      "Ġpresent": 2197,
      "Ġent": 2198,
      "Ġap": 2199,
      "Ġlovely": 2200,
      "Ġapples": 2201,
      "Ġpract": 2202,
      "Ġadm": 2203,
      "Ġwrite": 2204,
      "Ġbush": 2205,
      "Ġgiant": 2206,
      "ĠJimmy": 2207,
      "Ġhealthy": 2208,
      "ont": 2209,
      "Ġclouds": 2210,
      "Ġpill": 2211,
      "Ġshining": 2212,
      "Ġgather": 2213,
      "izz": 2214,
      "Ġpar": 2215,
      "umber": 2216,
      "Ġrolled": 2217,
      "isa": 2218,
      "Ġcheer": 2219,
      "Tommy": 2220,
      "Ġplaces": 2221,
      "Good": 2222,
      "Ġfront": 2223,
      "ndpa": 2224,
      "Ġputs": 2225,
      "owed": 2226,
      "Ġwhich": 2227,
      "Ġloves": 2228,
      "Ġsaf": 2229,
      "Ġvill": 2230,
      "Ġsur": 2231,
      "Ġpath": 2232,
      "ĠMittens": 2233,
      "lla": 2234,
      "Ġspotted": 2235,
      "ub": 2236,
      "Ġtun": 2237,
      "Ġhon": 2238,
      "Ġworm": 2239,
      "Ġimpre": 2240,
      "Ġclever": 2241,
      "Ġshr": 2242,
      "Ġorgan": 2243,
      "Ġmyster": 2244,
      "bar": 2245,
      "Ġlay": 2246,
      "Ġmatter": 2247,
      "Ġfeather": 2248,
      "Ġtasted": 2249,
      "Ġwild": 2250,
      "Ġdi": 2251,
      "Ġeag": 2252,
      "Ġzoo": 2253,
      "Ġmed": 2254,
      "Ġtrip": 2255,
      "Ġprot": 2256,
      "Ġrespect": 2257,
      "een": 2258,
      "Ġbark": 2259,
      "Ġhor": 2260,
      "Ġcouch": 2261,
      "Ġsuc": 2262,
      "Ġthin": 2263,
      "Ġpop": 2264,
      "Ġwhole": 2265,
      "Lucy": 2266,
      "ching": 2267,
      "Ġfoot": 2268,
      "Ġprotect": 2269,
      "erly": 2270,
      "Ġasleep": 2271,
      "Ġpile": 2272,
      "Ġspent": 2273,
      "ular": 2274,
      "St": 2275,
      "Ġbuilding": 2276,
      "Ġdirt": 2277,
      "cean": 2278,
      "Ġocean": 2279,
      "Ġlad": 2280,
      "Ġknee": 2281,
      "la": 2282,
      "Ġgoes": 2283,
      "Ġcoin": 2284,
      "Ġspider": 2285,
      "Ġwearing": 2286,
      "barra": 2287,
      "Ġmountain": 2288,
      "Ġpretended": 2289,
      "Ġembarra": 2290,
      "eb": 2291,
      "nic": 2292,
      "Every": 2293,
      "Ġslid": 2294,
      "Ġpicnic": 2295,
      "Ġscreamed": 2296,
      "Ġfaces": 2297,
      "Ġteach": 2298,
      "Ġphone": 2299,
      "hile": 2300,
      "Ġsack": 2301,
      "Ġsnake": 2302,
      "Ġanswer": 2303,
      "ĠWith": 2304,
      "Ġseat": 2305,
      "Ġconfused": 2306,
      "Ġappeared": 2307,
      "Come": 2308,
      "oose": 2309,
      "Jim": 2310,
      "Ġtalking": 2311,
      "Ġgently": 2312,
      "ife": 2313,
      "Ġsal": 2314,
      "Ġfurry": 2315,
      "Ġhelpful": 2316,
      "Ġmud": 2317,
      "Ġdrive": 2318,
      "Ġmind": 2319,
      "lex": 2320,
      "Ġpan": 2321,
      "Ġpass": 2322,
      "Ġladder": 2323,
      "Ġsupp": 2324,
      "Ġoven": 2325,
      "Ġign": 2326,
      "Ġcart": 2327,
      "Ġpush": 2328,
      "In": 2329,
      "ale": 2330,
      "Ġser": 2331,
      "Ġrec": 2332,
      "Ġwhenever": 2333,
      "arge": 2334,
      "Ġval": 2335,
      "Ġcorner": 2336,
      "unk": 2337,
      "Ġwom": 2338,
      "Ġchocol": 2339,
      "Ġcalm": 2340,
      "Ġsplas": 2341,
      "Ġwoman": 2342,
      "Ġban": 2343,
      "ĠHow": 2344,
      "ÅĵI": 2345,
      "Ġneighbor": 2346,
      "Just": 2347,
      "Ġlast": 2348,
      "ĠGo": 2349,
      "Ġtool": 2350,
      "Ġmach": 2351,
      "ĠSometimes": 2352,
      "Ġshirt": 2353,
      "Molly": 2354,
      "Ġblew": 2355,
      "Ġfixed": 2356,
      "read": 2357,
      "Ġring": 2358,
      "Ġfighting": 2359,
      "Ġfinish": 2360,
      "Ġwaiting": 2361,
      "Ġwave": 2362,
      "Ġspicy": 2363,
      "Ġforgive": 2364,
      "Ġtid": 2365,
      "ert": 2366,
      "bbles": 2367,
      "ĠAl": 2368,
      "Ġfeet": 2369,
      "Ġminut": 2370,
      "Ġspread": 2371,
      "Ġdelight": 2372,
      "Ġash": 2373,
      "Ġtaste": 2374,
      "Ġeventually": 2375,
      "Ġteeth": 2376,
      "Ġlive": 2377,
      "Ġembarrassed": 2378,
      "Ġpour": 2379,
      "Ġhorse": 2380,
      "Ġtomorrow": 2381,
      "Soon": 2382,
      "Ġremind": 2383,
      "Ġbell": 2384,
      "Mum": 2385,
      "Ġscar": 2386,
      "Ġcookie": 2387,
      "Ġsmooth": 2388,
      "Ġrocket": 2389,
      "ones": 2390,
      "Ġant": 2391,
      "Ġshy": 2392,
      "Ġcloth": 2393,
      "Ġfold": 2394,
      "ĠEmily": 2395,
      "Ġchocolate": 2396,
      "mo": 2397,
      "Ġtries": 2398,
      "ĠCh": 2399,
      "Ġcolour": 2400,
      "Ġstep": 2401,
      "oph": 2402,
      "old": 2403,
      "Ġlarge": 2404,
      "Ġtea": 2405,
      "Ġsongs": 2406,
      "Ġneckl": 2407,
      "Ġhiding": 2408,
      "Ġbanan": 2409,
      "ĠJenny": 2410,
      "Ġkitten": 2411,
      "Ġpaw": 2412,
      "Ġspray": 2413,
      "Ġspe": 2414,
      "urse": 2415,
      "Ġrob": 2416,
      "Ġhum": 2417,
      "Ġpool": 2418,
      "Ġple": 2419,
      "Ġemp": 2420,
      "Ġwash": 2421,
      "Ġcann": 2422,
      "Ġpizz": 2423,
      "Ġempty": 2424,
      "nny": 2425,
      "ungle": 2426,
      "Ġvillage": 2427,
      "Ġcreative": 2428,
      "lebr": 2429,
      "Ġjungle": 2430,
      "Ġgrew": 2431,
      "Ġbugs": 2432,
      "Ġtightly": 2433,
      "Ġtidy": 2434,
      "als": 2435,
      "getable": 2436,
      "Ġcannot": 2437,
      "ĠSt": 2438,
      "dge": 2439,
      "Ġcoo": 2440,
      "Ġknocked": 2441,
      "Ġvegetable": 2442,
      "Ġwhistle": 2443,
      "Ġsol": 2444,
      "Ġrep": 2445,
      "Ġcelebr": 2446,
      "umpy": 2447,
      "ato": 2448,
      "hnny": 2449,
      "ĠTV": 2450,
      "den": 2451,
      "Ġchick": 2452,
      "My": 2453,
      "Ġrude": 2454,
      "Ġwore": 2455,
      "Ġtrust": 2456,
      "Ġhar": 2457,
      "ĠSome": 2458,
      "airs": 2459,
      "Ġbarked": 2460,
      "Ġrobot": 2461,
      "Ġwip": 2462,
      "Ġpeaceful": 2463,
      "Now": 2464,
      "Ġsparkly": 2465,
      "Ġpuddle": 2466,
      "Ġnecklace": 2467,
      "ground": 2468,
      "Ġhears": 2469,
      "Ġchased": 2470,
      "ighed": 2471,
      "ĠEverywhere": 2472,
      "Ġpizza": 2473,
      "ĠPlease": 2474,
      "Ġstret": 2475,
      "Ġsel": 2476,
      "Ġstir": 2477,
      "ĠJust": 2478,
      "Ġmeant": 2479,
      "ĠLe": 2480,
      "ned": 2481,
      "Ġbal": 2482,
      "Ġmoon": 2483,
      "Ġmaybe": 2484,
      "Ġgun": 2485,
      "Ġstra": 2486,
      "Ġpuzzle": 2487,
      "Ġhidden": 2488,
      "Ġpin": 2489,
      "Ġnet": 2490,
      "Ġsave": 2491,
      "ian": 2492,
      "Ġtreats": 2493,
      "Ġgen": 2494,
      "Ġmeadow": 2495,
      "Ġcarrots": 2496,
      "ĠOn": 2497,
      "inted": 2498,
      "lower": 2499,
      "era": 2500,
      "box": 2501,
      "Ġmot": 2502,
      "Ġsticks": 2503,
      "Ġsnacks": 2504,
      "dle": 2505,
      "Ġcarried": 2506,
      "Ġmissed": 2507,
      "ĠTheir": 2508,
      "gly": 2509,
      "ustr": 2510,
      "Ġforward": 2511,
      "ult": 2512,
      "Ġseed": 2513,
      "Ġflut": 2514,
      "Ġtells": 2515,
      "Ġsplash": 2516,
      "Ġav": 2517,
      "Ġgroup": 2518,
      "Ġsour": 2519,
      "Ġbat": 2520,
      "Ġcrab": 2521,
      "Ġprince": 2522,
      "Ġmachine": 2523,
      "Ġshelf": 2524,
      "Ġber": 2525,
      "ĠJake": 2526,
      "Ġclear": 2527,
      "Ġugly": 2528,
      "Ġstring": 2529,
      "Ġselfish": 2530,
      "Ġjumping": 2531,
      "Ġdisappo": 2532,
      "Ġ'": 2533,
      "ird": 2534,
      "Dad": 2535,
      "ĠTeddy": 2536,
      "aul": 2537,
      "Ġgold": 2538,
      "iger": 2539,
      "Ġlem": 2540,
      "elly": 2541,
      "kin": 2542,
      "Ġfrustr": 2543,
      "Ġleaf": 2544,
      "Ġburn": 2545,
      "Ġknowing": 2546,
      "Ġgray": 2547,
      "Ġstood": 2548,
      "ĠLisa": 2549,
      "ying": 2550,
      "Ġroar": 2551,
      "Ġyelled": 2552,
      "Ġpolice": 2553,
      "Ġlanded": 2554,
      "Ġlegs": 2555,
      "Please": 2556,
      "itter": 2557,
      "Ġsharing": 2558,
      "most": 2559,
      "Ġhonest": 2560,
      "Ġpir": 2561,
      "Ġcirc": 2562,
      "ator": 2563,
      "Ġstone": 2564,
      "eterm": 2565,
      "hin": 2566,
      "Ġwhis": 2567,
      "Ġblow": 2568,
      "Ġdeterm": 2569,
      "ĠWhy": 2570,
      "ĠMum": 2571,
      "ĠTogether": 2572,
      "Ġstanding": 2573,
      "Ġplate": 2574,
      "Ġdrew": 2575,
      "Ġbreath": 2576,
      "Ġalmost": 2577,
      "Ġnods": 2578,
      "vous": 2579,
      "Ġgar": 2580,
      "Ġfancy": 2581,
      "Ġfrustrated": 2582,
      "Ġnumber": 2583,
      "Ġseek": 2584,
      "Stop": 2585,
      "Ġdisappointed": 2586,
      "Ġtest": 2587,
      "Ġsleepy": 2588,
      "To": 2589,
      "orry": 2590,
      "iff": 2591,
      "Ġthese": 2592,
      "ital": 2593,
      "Mama": 2594,
      "aking": 2595,
      "There": 2596,
      "uce": 2597,
      "Ġfear": 2598,
      "Ġscream": 2599,
      "Ġpowerful": 2600,
      "Ġmysterious": 2601,
      "Ġfeed": 2602,
      "Ġpillow": 2603,
      "Be": 2604,
      "ser": 2605,
      "Ġhours": 2606,
      "Ġgener": 2607,
      "Ġpolite": 2608,
      "ĠBr": 2609,
      "ĠAnn": 2610,
      "Ġhosp": 2611,
      "Ġfil": 2612,
      "Ġcro": 2613,
      "pack": 2614,
      "Ġhospital": 2615,
      "Ġline": 2616,
      "Ġgas": 2617,
      "Ġjew": 2618,
      "Ġmedic": 2619,
      "Ġashamed": 2620,
      "ffe": 2621,
      "Ġplants": 2622,
      "Ġcries": 2623,
      "Ġdecor": 2624,
      "ĠEven": 2625,
      "ecially": 2626,
      "Ġner": 2627,
      "ote": 2628,
      "ets": 2629,
      "Ġreg": 2630,
      "ĠPeter": 2631,
      "Ġreturned": 2632,
      "issors": 2633,
      "ual": 2634,
      "izzy": 2635,
      "Ġunderstood": 2636,
      "Ġsheep": 2637,
      "Ġscissors": 2638,
      "Ġmedicine": 2639,
      "Ġnervous": 2640,
      "Ġwhisp": 2641,
      "ĠDon": 2642,
      "Ġtwirl": 2643,
      "ensive": 2644,
      "Ġexpensive": 2645,
      "Ġspoil": 2646,
      "pecially": 2647,
      "ony": 2648,
      "Ġshore": 2649,
      "Ġpacked": 2650,
      "Ġespecially": 2651,
      "sist": 2652,
      "Ġscarf": 2653,
      "osaur": 2654,
      "Ġbored": 2655,
      "ĠBe": 2656,
      "Ġpay": 2657,
      "Ġdancing": 2658,
      "Ġpassed": 2659,
      "Ġsandwich": 2660,
      "Ġvegetables": 2661,
      "Ġnut": 2662,
      "Ġtaught": 2663,
      "Ġvan": 2664,
      "Ġgarage": 2665,
      "Ġsaved": 2666,
      "Ġpoor": 2667,
      "Ġgrumpy": 2668,
      "usie": 2669,
      "Ġcloset": 2670,
      "light": 2671,
      "ina": 2672,
      "Ġpri": 2673,
      "Ġbecome": 2674,
      "Ġhel": 2675,
      "Ġmummy": 2676,
      "Ġruined": 2677,
      "Ġscr": 2678,
      "Ġtaken": 2679,
      "Ġfinger": 2680,
      "Ġgate": 2681,
      "'d": 2682,
      "Ġdrum": 2683,
      "Ġcomfortable": 2684,
      "Ġfill": 2685,
      "Ġmessy": 2686,
      "iddle": 2687,
      "Ġcand": 2688,
      "ĠRex": 2689,
      "Ġdinosaur": 2690,
      "Ġsold": 2691,
      "Ġbedroom": 2692,
      "Ġeasy": 2693,
      "Ġones": 2694,
      "Ġexam": 2695,
      "Ġgenerous": 2696,
      "oop": 2697,
      "Ġpleased": 2698,
      "Ġasking": 2699,
      "ano": 2700,
      "Ġclass": 2701,
      "Ġsuccess": 2702,
      "ym": 2703,
      "Ġwis": 2704,
      "Ġyourself": 2705,
      "Jane": 2706,
      "imp": 2707,
      "Ġworking": 2708,
      "Ġdetermined": 2709,
      "Ġweek": 2710,
      "Ġship": 2711,
      "Ġpray": 2712,
      "Ġglue": 2713,
      "Ġfig": 2714,
      "Ġhopping": 2715,
      "Ġgiggled": 2716,
      "Ġsailed": 2717,
      "Ġboring": 2718,
      "Ġstuff": 2719,
      "Ġballs": 2720,
      "ĠLeo": 2721,
      "Ġmotor": 2722,
      "Ġcri": 2723,
      "Ġwagged": 2724,
      "Ġvase": 2725,
      "Ġglass": 2726,
      "Jimmy": 2727,
      "Ġkissed": 2728,
      "Where": 2729,
      "Ġhur": 2730,
      "Ġmov": 2731,
      "ĠKitty": 2732,
      "Ġmistake": 2733,
      "Ġoften": 2734,
      "ĠOK": 2735,
      "Ġsighed": 2736,
      "ates": 2737,
      "Ġdest": 2738,
      "Ġplayground": 2739,
      "Ġexcite": 2740,
      "Ġesc": 2741,
      "Ġminutes": 2742,
      "erp": 2743,
      "Ġtrue": 2744,
      "Ġwheel": 2745,
      "Ġlead": 2746,
      "Ġbrush": 2747,
      "ĠJohnny": 2748,
      "Ġchest": 2749,
      "Ġchew": 2750,
      "Ġanswered": 2751,
      "Ġwaves": 2752,
      "Ġweak": 2753,
      "Ġclown": 2754,
      "Ġboys": 2755,
      "Ġgathered": 2756,
      "iness": 2757,
      "Ġfake": 2758,
      "Ġspend": 2759,
      "Ġdrop": 2760,
      "Ġthankful": 2761,
      "illi": 2762,
      "Ġtears": 2763,
      "Ġrad": 2764,
      "ĠZ": 2765,
      "mb": 2766,
      "Ġtick": 2767,
      "Ġmiddle": 2768,
      "selves": 2769,
      "Ġcontent": 2770,
      "Sarah": 2771,
      "Ġhang": 2772,
      "Ġjelly": 2773,
      "Ġteam": 2774,
      "apped": 2775,
      "ots": 2776,
      "Ġeld": 2777,
      "Ġgets": 2778,
      "ushed": 2779,
      "Ġexcitement": 2780,
      "Ġcap": 2781,
      "Ġquestions": 2782,
      "Ġlemon": 2783,
      "Ġeggs": 2784,
      "Ġlock": 2785,
      "Who": 2786,
      "Ġtent": 2787,
      "arl": 2788,
      "Ġflag": 2789,
      "Ġskipped": 2790,
      "Ġfridge": 2791,
      "ipp": 2792,
      "Ġchange": 2793,
      "Ġsmelly": 2794,
      "Ġwrote": 2795,
      "Ġrid": 2796,
      "Ġdrawing": 2797,
      "Ġlit": 2798,
      "Ġrelax": 2799,
      "Ġadd": 2800,
      "llie": 2801,
      "Ġfruits": 2802,
      "Ġdiscovered": 2803,
      "oof": 2804,
      "aged": 2805,
      "Sorry": 2806,
      "Ġknight": 2807,
      "Ġbridge": 2808,
      "Ġsight": 2809,
      "ete": 2810,
      "ĠBl": 2811,
      "Ġbathroom": 2812,
      "Their": 2813,
      "Ġboard": 2814,
      "Ġmatch": 2815,
      "Ġmir": 2816,
      "Ġdogs": 2817,
      "Are": 2818,
      "Ġknife": 2819,
      "Ġshows": 2820,
      "Ġclap": 2821,
      "Ġlazy": 2822,
      "Ġfluffy": 2823,
      "Ġqueen": 2824,
      "Ġwolf": 2825,
      "Ġtag": 2826,
      "Ġsil": 2827,
      "Ġcovered": 2828,
      "ĠBrown": 2829,
      "que": 2830,
      "Ġcheck": 2831,
      "Ġsweetie": 2832,
      "Jill": 2833,
      "Ġfamous": 2834,
      "Ġmighty": 2835,
      "ork": 2836,
      "cept": 2837,
      "Ġbake": 2838,
      "Ġord": 2839,
      "Ġpicks": 2840,
      "Ġdrank": 2841,
      "Ġdistance": 2842,
      "Ġmic": 2843,
      "Ġang": 2844,
      "Ġnod": 2845,
      "ella": 2846,
      "Ġdisappeared": 2847,
      "ipper": 2848,
      "Ġlying": 2849,
      "ĠAt": 2850,
      "Ġdeer": 2851,
      "ror": 2852,
      "Ġwander": 2853,
      "Ġboss": 2854,
      "Ġcaterp": 2855,
      "Ġtowel": 2856,
      "Ġcrown": 2857,
      "Ġcaterpill": 2858,
      "Me": 2859,
      "usual": 2860,
      "Ġunusual": 2861,
      "Ġwalks": 2862,
      "Ġfre": 2863,
      "Ġmap": 2864,
      "Ġsoap": 2865,
      "Ġcalling": 2866,
      "Ġeager": 2867,
      "ti": 2868,
      "Ġbone": 2869,
      "Ġind": 2870,
      "Ġfis": 2871,
      "Ġmoving": 2872,
      "Ġshoot": 2873,
      "Ġed": 2874,
      "Ġsell": 2875,
      "Ġdecide": 2876,
      "Ġelderly": 2877,
      "obby": 2878,
      "ĠIf": 2879,
      "Ġlose": 2880,
      "Ġstones": 2881,
      "ination": 2882,
      "Ġborrow": 2883,
      "Ġcover": 2884,
      "Ġdig": 2885,
      "Ġdish": 2886,
      "elp": 2887,
      "Ġcleaned": 2888,
      "body": 2889,
      "Ġsplashed": 2890,
      "ating": 2891,
      "Sally": 2892,
      "Ġglow": 2893,
      "Ġcrawl": 2894,
      "Ġcage": 2895,
      "arth": 2896,
      "ĠEnd": 2897,
      "Ġcher": 2898,
      "imed": 2899,
      "work": 2900,
      "umbled": 2901,
      "Ġincred": 2902,
      "Ġhunt": 2903,
      "Ġfeathers": 2904,
      "Ġoffered": 2905,
      "Ġbanana": 2906,
      "asing": 2907,
      "Ġcaterpillar": 2908,
      "Ġyours": 2909,
      "Ġkindness": 2910,
      "Ġfather": 2911,
      "alous": 2912,
      "Ġcoins": 2913,
      "Ġeye": 2914,
      "Ġjuicy": 2915,
      "Ġbrilli": 2916,
      "Ġjealous": 2917,
      "Ġbranches": 2918,
      "Ġtape": 2919,
      "Ġcam": 2920,
      "Ġcost": 2921,
      "Ġbottom": 2922,
      "Ġorganized": 2923,
      "Ġmirror": 2924,
      "Ġlamp": 2925,
      "Ġbody": 2926,
      "Ġbrilliant": 2927,
      "Ġext": 2928,
      "Ġtoug": 2929,
      "Ġrare": 2930,
      "fast": 2931,
      "Ġtie": 2932,
      "Ġcraw": 2933,
      "Ġhorn": 2934,
      "Ġthick": 2935,
      "Ġcrawled": 2936,
      "Ġdepend": 2937,
      "Ġhurts": 2938,
      "Ġtunn": 2939,
      "port": 2940,
      "ĠNo": 2941,
      "enny": 2942,
      "Ġmeasure": 2943,
      "Ġcolourful": 2944,
      "Ġbalance": 2945,
      "Help": 2946,
      "Ġbubbles": 2947,
      "Ġbreakfast": 2948,
      "Ġimpressed": 2949,
      "Ġlicked": 2950,
      "Ġhero": 2951,
      "ugar": 2952,
      "Ġtwist": 2953,
      "olog": 2954,
      "Ġincredible": 2955,
      "Ġtiger": 2956,
      "Ġfool": 2957,
      "Ġrough": 2958,
      "Ġjoke": 2959,
      "Ġcross": 2960,
      "Ġonce": 2961,
      "Ġtrucks": 2962,
      "Ġwagon": 2963,
      "Ġfine": 2964,
      "Ġlibr": 2965,
      "Ġboxes": 2966,
      "Ġtough": 2967,
      "Ġadventur": 2968,
      "Ġsmoke": 2969,
      "Ġhappening": 2970,
      "Ġapolog": 2971,
      "appy": 2972,
      "bin": 2973,
      "Ġmanaged": 2974,
      "Ġcabin": 2975,
      "Ġsugar": 2976,
      "ilt": 2977,
      "amond": 2978,
      "?\".": 2979,
      "Ġflash": 2980,
      "Ġrealised": 2981,
      "Ġfavour": 2982,
      "Ġbitter": 2983,
      "Ġtrunk": 2984,
      "Ġadventurous": 2985,
      "How": 2986,
      "Ġwrapped": 2987,
      "hip": 2988,
      "rag": 2989,
      "Ġnoisy": 2990,
      "Ġchase": 2991,
      "Ġjog": 2992,
      "Ġfalls": 2993,
      "Ġflute": 2994,
      "ĠBlue": 2995,
      "Mummy": 2996,
      "Ġaw": 2997,
      "Ġadded": 2998,
      "Ġsugg": 2999,
      "Ġfavourite": 3000,
      "Ġsuggest": 3001,
      "Sp": 3002,
      "Ġdizzy": 3003,
      "ĠSusie": 3004,
      "Ġmelt": 3005,
      "Ġok": 3006,
      "Ġdiamond": 3007,
      "Ġrecord": 3008,
      "Ġharm": 3009,
      "Ġmixed": 3010,
      "Ġcircles": 3011,
      "Ġfoolish": 3012,
      "Al": 3013,
      "Ġsunf": 3014,
      "Ġmarket": 3015,
      "Ġpump": 3016,
      "Ġaccept": 3017,
      "lies": 3018,
      "Ġwand": 3019,
      "Ġlog": 3020,
      "Ġjam": 3021,
      "ured": 3022,
      "Ġguess": 3023,
      "Ġsafely": 3024,
      "land": 3025,
      "yal": 3026,
      "keep": 3027,
      "Ġlouder": 3028,
      "Ġextra": 3029,
      "ory": 3030,
      "Ġword": 3031,
      "Ġneeds": 3032,
      "Ġarg": 3033,
      "Ġlifted": 3034,
      "edient": 3035,
      "ery": 3036,
      "ately": 3037,
      "ĠMark": 3038,
      "Ġcheerful": 3039,
      "Ġturt": 3040,
      "ĠSn": 3041,
      "Ġshark": 3042,
      "Ġjack": 3043,
      "Ġmagn": 3044,
      "Ġdependable": 3045,
      "Ġter": 3046,
      "Ġpil": 3047,
      "Ġears": 3048,
      "Ġpointing": 3049,
      "uggled": 3050,
      "Ġdreamed": 3051,
      "Ġwrap": 3052,
      "Ġberries": 3053,
      "Ġmoms": 3054,
      "Ġagainst": 3055,
      "Ġgrandpa": 3056,
      "Ġgrown": 3057,
      "Ġjewel": 3058,
      "ira": 3059,
      "Ġpee": 3060,
      "Ġgiving": 3061,
      "Ġfigure": 3062,
      "Sue": 3063,
      "Ġham": 3064,
      "Ġgrace": 3065,
      "Ġweal": 3066,
      "Ġfrown": 3067,
      "Well": 3068,
      "Ġswan": 3069,
      "Ġbags": 3070,
      "Ġmovie": 3071,
      "Ġtwig": 3072,
      "Ġdreams": 3073,
      "Ġballoons": 3074,
      "Ġbelonged": 3075,
      "ique": 3076,
      "head": 3077,
      "omed": 3078,
      "Ġlearning": 3079,
      "Ġstronger": 3080,
      "laimed": 3081,
      "Gra": 3082,
      "Ġdolp": 3083,
      "Ġedge": 3084,
      "Ġexclaimed": 3085,
      "Ġyarn": 3086,
      "Ġsword": 3087,
      "Ġslipped": 3088,
      "Ġunique": 3089,
      "Ġsearch": 3090,
      "Ġloyal": 3091,
      "Ġchoose": 3092,
      "emo": 3093,
      "Ġhats": 3094,
      "Ġshake": 3095,
      "rage": 3096,
      "Ġloudly": 3097,
      "Ġenjoying": 3098,
      "fic": 3099,
      "oppy": 3100,
      "Ġhappiness": 3101,
      "Ġspun": 3102,
      "iable": 3103,
      "Ġobedient": 3104,
      "Ġtools": 3105,
      "anut": 3106,
      "anged": 3107,
      "Ġmarble": 3108,
      "ĠMrs": 3109,
      "ready": 3110,
      "Ġsquee": 3111,
      "Ġlaughs": 3112,
      "Ġrich": 3113,
      "Ġwalls": 3114,
      "Ġlean": 3115,
      "ĠElla": 3116,
      "Ġtele": 3117,
      "Ġreliable": 3118,
      "Ġcamera": 3119,
      "und": 3120,
      "Ġfour": 3121,
      "ĠFred": 3122,
      "iv": 3123,
      "ature": 3124,
      "Ġalready": 3125,
      "Ġmod": 3126,
      "Ġcleaning": 3127,
      "Ġunl": 3128,
      "Ġdiffic": 3129,
      "Ġangel": 3130,
      "Ġterri": 3131,
      "oot": 3132,
      "ĠMy": 3133,
      "Ġclay": 3134,
      "Ġbull": 3135,
      "Ġmeans": 3136,
      "Ġuseful": 3137,
      "Ġcrayon": 3138,
      "Billy": 3139,
      "Ġgoat": 3140,
      "ipe": 3141,
      "Ġpainting": 3142,
      "Ġbuttons": 3143,
      "gy": 3144,
      "ention": 3145,
      "Here": 3146,
      "Ġbarn": 3147,
      "ages": 3148,
      "Ġusing": 3149,
      "Ġcompet": 3150,
      "Ġstraw": 3151,
      "ĠLittle": 3152,
      "umbers": 3153,
      "Ġbloom": 3154,
      "Ġstubb": 3155,
      "Ġindepend": 3156,
      "Ġtunnel": 3157,
      "Ġturtle": 3158,
      "Ġtank": 3159,
      "Ġhelps": 3160,
      "Ġscare": 3161,
      "Ġcircle": 3162,
      "Ġdifficult": 3163,
      "cil": 3164,
      "Ġnorm": 3165,
      "Ġthoughtful": 3166,
      "Joe": 3167,
      "Ġpencil": 3168,
      "keeper": 3169,
      "Ġthu": 3170,
      "Ġfier": 3171,
      "Ġfright": 3172,
      "Ġbushes": 3173,
      "ĠTweety": 3174,
      "Ġpeanut": 3175,
      "Ġpainted": 3176,
      "Ġnosy": 3177,
      "Ġsounded": 3178,
      "zed": 3179,
      "Ġtimes": 3180,
      "Ġguit": 3181,
      "Ġstream": 3182,
      "Ġgem": 3183,
      "Ġwhale": 3184,
      "Ġoffice": 3185,
      "Ġcounted": 3186,
      "Ġdove": 3187,
      "Ġref": 3188,
      "Ġskin": 3189,
      "Ġbald": 3190,
      "Ġparrot": 3191,
      "Ġliz": 3192,
      "Ġcompetit": 3193,
      "Ġstubborn": 3194,
      "Amy": 3195,
      "Ġbirdie": 3196,
      "Ġfierce": 3197,
      "wards": 3198,
      "Ġtoast": 3199,
      "ado": 3200,
      "ĠBu": 3201,
      "Ġknows": 3202,
      "ye": 3203,
      "Ġrug": 3204,
      "Ġisland": 3205,
      "ĠWhenever": 3206,
      "Ġinvited": 3207,
      "Ġwealthy": 3208,
      "Ġnormal": 3209,
      "Ġcop": 3210,
      "Ġsaying": 3211,
      "Ġswe": 3212,
      "Ġexplored": 3213,
      "Ġjoined": 3214,
      "cient": 3215,
      "ject": 3216,
      "Ġfrag": 3217,
      "Ġicy": 3218,
      "orge": 3219,
      "Ġsoar": 3220,
      "Ġweird": 3221,
      "Ġnotice": 3222,
      "Ġcrack": 3223,
      "Ġindependent": 3224,
      "Ġnumbers": 3225,
      "Ġsunflower": 3226,
      "Ġpost": 3227,
      "Ġmole": 3228,
      "Ġbrothers": 3229,
      "Ġdesign": 3230,
      "Ġpirate": 3231,
      "inary": 3232,
      "erry": 3233,
      "Ġgrap": 3234,
      "Ġbossy": 3235,
      "Ġfat": 3236,
      "Ġsmaller": 3237,
      "Ġharder": 3238,
      "ouses": 3239,
      "Ġbuilt": 3240,
      "Ġspoiled": 3241,
      "ines": 3242,
      "Ġstairs": 3243,
      "Ġancient": 3244,
      "Ġseem": 3245,
      "Ġprep": 3246,
      "ĠToday": 3247,
      "Ġguitar": 3248,
      "Ġstumbled": 3249,
      "Ġlights": 3250,
      "Ġmarch": 3251,
      "Ġchicken": 3252,
      "Ġfountain": 3253,
      "Ġsauce": 3254,
      "Ġstri": 3255,
      "Ġrode": 3256,
      "Ġenorm": 3257,
      "Ġpicking": 3258,
      "Ġbeet": 3259,
      "Ġcact": 3260,
      "Ġvalu": 3261,
      "Ġescape": 3262,
      "Ġfragile": 3263,
      "Ġenormous": 3264,
      "Ġhouses": 3265,
      "Ġresc": 3266,
      "Ġpoured": 3267,
      "Ġseeds": 3268,
      "Ġfresh": 3269,
      "Ġsuit": 3270,
      "Ġchar": 3271,
      "ĠPete": 3272,
      "Ġhose": 3273,
      "Ġenvel": 3274,
      "ÅĵLet": 3275,
      "Ġreminded": 3276,
      "ither": 3277,
      "Ġpow": 3278,
      "Ġmem": 3279,
      "upid": 3280,
      "Ġbump": 3281,
      "Ġcudd": 3282,
      "irp": 3283,
      "Ġfork": 3284,
      "Ġtrump": 3285,
      "Ġproudly": 3286,
      "Ġkinds": 3287,
      "Ġbounce": 3288,
      "Ġpractice": 3289,
      "Ġways": 3290,
      "Ġpenny": 3291,
      "Ġcity": 3292,
      "Ġpepper": 3293,
      "Ġsalad": 3294,
      "ĠAlice": 3295,
      "Ġcostum": 3296,
      "Spot": 3297,
      "Ġfrightened": 3298,
      "aid": 3299,
      "ache": 3300,
      "Ġsearching": 3301,
      "Ġchose": 3302,
      "Ġfingers": 3303,
      "Ġshells": 3304,
      "Ġadmired": 3305,
      "Ġsolve": 3306,
      "Ġcactus": 3307,
      "Ġtummy": 3308,
      "Ġwake": 3309,
      "Ġhalf": 3310,
      "Ġthirst": 3311,
      "Ġroof": 3312,
      "Ġshowing": 3313,
      "ola": 3314,
      "Ġdelighted": 3315,
      "na": 3316,
      "Ġcone": 3317,
      "Ġdull": 3318,
      "anger": 3319,
      "dom": 3320,
      "Ġnurse": 3321,
      "alk": 3322,
      "arsh": 3323,
      "Ġboats": 3324,
      "Ġbarber": 3325,
      "eorge": 3326,
      "Ġbeak": 3327,
      "Ġstage": 3328,
      "Ġstupid": 3329,
      "Ġexcitedly": 3330,
      "Ġabove": 3331,
      "berry": 3332,
      "Ġstudy": 3333,
      "Ġbatter": 3334,
      "Ġspace": 3335,
      "Ġsuggested": 3336,
      "Ġlizard": 3337,
      "Ġshone": 3338,
      "Ġcompass": 3339,
      "Ġregular": 3340,
      "Ġflashlight": 3341,
      "vice": 3342,
      "Ġhoop": 3343,
      "Ġcere": 3344,
      "Ġlocked": 3345,
      "Ġspilled": 3346,
      "Ġshape": 3347,
      "Ġattic": 3348,
      "Ġterrible": 3349,
      "Ġtooth": 3350,
      "ĠNemo": 3351,
      "Ġvaluable": 3352,
      "Ġtrumpet": 3353,
      "time": 3354,
      "arry": 3355,
      "Ġarrow": 3356,
      "ress": 3357,
      "Ġpant": 3358,
      "Ġyet": 3359,
      "Ġearth": 3360,
      "ĠBella": 3361,
      "illie": 3362,
      "Ġcheap": 3363,
      "ĠBobo": 3364,
      "Ġdesk": 3365,
      "Ġkicked": 3366,
      "Ġserious": 3367,
      "Ġsuccessful": 3368,
      "Ġthirsty": 3369,
      "Ġlow": 3370,
      "ĠDave": 3371,
      "Em": 3372,
      "het": 3373,
      "inal": 3374,
      "Ġclum": 3375,
      "Ġlab": 3376,
      "Ġscrat": 3377,
      "Ġorig": 3378,
      "com": 3379,
      "Ġow": 3380,
      "Ġrat": 3381,
      "Ġstove": 3382,
      "corn": 3383,
      "Ġavo": 3384,
      "Ġenvelope": 3385,
      "Ġwitch": 3386,
      "ĠMummy": 3387,
      "Ġthemselves": 3388,
      "Ġimpress": 3389,
      "Ġer": 3390,
      "Ġson": 3391,
      "ĠWhile": 3392,
      "aghet": 3393,
      "Ġcomb": 3394,
      "Ġbrightly": 3395,
      "Ġstops": 3396,
      "Ġthunder": 3397,
      "aghetti": 3398,
      "Ġhay": 3399,
      "Ġbees": 3400,
      "Ġstamp": 3401,
      "iew": 3402,
      "Ġlaw": 3403,
      "Ġraced": 3404,
      "Ġdreaming": 3405,
      "Ġscreen": 3406,
      "ĠMar": 3407,
      "Ġcareless": 3408,
      "Ġsniff": 3409,
      "Ġoriginal": 3410,
      "Ġwashed": 3411,
      "Ġspaghetti": 3412,
      "ĠYour": 3413,
      "Ġchanged": 3414,
      "Ġview": 3415,
      "Ġwiped": 3416,
      "ĠU": 3417,
      "uth": 3418,
      "Ġending": 3419,
      "Ġstickers": 3420,
      "Ġhelm": 3421,
      "Ġrushed": 3422,
      "ĠDucky": 3423,
      "Ġdelicate": 3424,
      "Ġwarned": 3425,
      "Ġbeetle": 3426,
      "Ġflex": 3427,
      "Ġmis": 3428,
      "gest": 3429,
      "ience": 3430,
      "isk": 3431,
      "Ġthose": 3432,
      "Ġyog": 3433,
      "Ġcarp": 3434,
      "berries": 3435,
      "Ġleaving": 3436,
      "Ġsteal": 3437,
      "Ġpersist": 3438,
      "Ġcompassion": 3439,
      "Ġclumsy": 3440,
      "Ġtor": 3441,
      "Ġbiggest": 3442,
      "!\".": 3443,
      "Ġtravel": 3444,
      "Ġdead": 3445,
      "oomy": 3446,
      "Ġpopcorn": 3447,
      "Ġdough": 3448,
      "Ġbean": 3449,
      "Ġfinding": 3450,
      "Ġenc": 3451,
      "Ġpumpkin": 3452,
      "Ġing": 3453,
      "ision": 3454,
      "Ġsne": 3455,
      "Ġtomato": 3456,
      "Ġdiscover": 3457,
      "Ġwire": 3458,
      "anny": 3459,
      "Ġlibrary": 3460,
      "While": 3461,
      "uring": 3462,
      "robe": 3463,
      "Ġgrand": 3464,
      "Ġsnee": 3465,
      "Ġdeliver": 3466,
      "Ġcomplet": 3467,
      "redient": 3468,
      "Ġgraceful": 3469,
      "Ġingredient": 3470,
      "Ġmeal": 3471,
      "Ġsorts": 3472,
      "Ġunk": 3473,
      "Ġtelling": 3474,
      "Ġcereal": 3475,
      "Ġknock": 3476,
      "Ġuncle": 3477,
      "Ġimagined": 3478,
      "Ġearly": 3479,
      "Ġpeeked": 3480,
      "Ġtask": 3481,
      "âĤ¬âĢ": 3482,
      "Ġtrap": 3483,
      "Ġhairy": 3484,
      "Ġmissing": 3485,
      "Ġcounting": 3486,
      "Ġingredients": 3487,
      "Ġadvice": 3488,
      "Ġpup": 3489,
      "uper": 3490,
      "Ġjacket": 3491,
      "Ġmel": 3492,
      "Ġshiver": 3493,
      "Ġzip": 3494,
      "Ġhumble": 3495,
      "Ġforth": 3496,
      "Ġstranger": 3497,
      "Ġsquare": 3498,
      "Ġdoesn": 3499,
      "Ġpale": 3500,
      "Ġguard": 3501,
      "Ġdestro": 3502,
      "ĠBobby": 3503,
      "Ġflexible": 3504,
      "Ġsudden": 3505,
      "Ġhipp": 3506,
      "ilty": 3507,
      "Ġplayful": 3508,
      "Ġdriving": 3509,
      "Ġguilty": 3510,
      "Ġpige": 3511,
      "Ġaunt": 3512,
      "Ġquestion": 3513,
      "Ġthinking": 3514,
      "Ġwhispered": 3515,
      "Ġimpressive": 3516,
      "Ġcards": 3517,
      "Ġnicely": 3518,
      "Ġjolly": 3519,
      "Ġcreate": 3520,
      "Ġopens": 3521,
      "Ġcollar": 3522,
      "Ġcarrying": 3523,
      "Ġslides": 3524,
      "Ġspeed": 3525,
      "nown": 3526,
      "Ġcur": 3527,
      "Ġallowed": 3528,
      "cod": 3529,
      "Ġtwirled": 3530,
      "Ġhandle": 3531,
      "Ġprint": 3532,
      "Ġsparkled": 3533,
      "Ġhunter": 3534,
      "illa": 3535,
      "Ġbrace": 3536,
      "Ġsticker": 3537,
      "Ġpopular": 3538,
      "ud": 3539,
      "Ġcush": 3540,
      "Ġumb": 3541,
      "ement": 3542,
      "Ġrub": 3543,
      "host": 3544,
      "Ġbracelet": 3545,
      "Ġumbre": 3546,
      "fa": 3547,
      "Ġtap": 3548,
      "Ġtied": 3549,
      "Ġsink": 3550,
      "Ġanx": 3551,
      "Ġenv": 3552,
      "Ġrubb": 3553,
      "ations": 3554,
      "Ġbase": 3555,
      "Ġdisg": 3556,
      "Ġrubbed": 3557,
      "comfort": 3558,
      "bled": 3559,
      "Ġfriendship": 3560,
      "Ġcarpet": 3561,
      "tter": 3562,
      "Ġuncomfort": 3563,
      "Ġcooking": 3564,
      "Ġcharming": 3565,
      "Ġpersistent": 3566,
      "Ġdisgust": 3567,
      "Ġuncomfortable": 3568,
      "arian": 3569,
      "Ġgum": 3570,
      "Ġgira": 3571,
      "Ġshocked": 3572,
      "ĠRose": 3573,
      "Ġholds": 3574,
      "awn": 3575,
      "Ġwing": 3576,
      "ream": 3577,
      "Ġghost": 3578,
      "Ġrefused": 3579,
      "ellig": 3580,
      "ĠRed": 3581,
      "Ġperm": 3582,
      "Ġmetal": 3583,
      "Ġanxious": 3584,
      "Ġintellig": 3585,
      "Ġbutterflies": 3586,
      "Ġdolphin": 3587,
      "Ġdust": 3588,
      "Ġscatter": 3589,
      "Ġsett": 3590,
      "Ġcrocod": 3591,
      "Ġgasped": 3592,
      "Ġunknown": 3593,
      "Ġpatter": 3594,
      "Ġscoot": 3595,
      "Ġeng": 3596,
      "Ġcomput": 3597,
      "Ġpatch": 3598,
      "Ġpants": 3599,
      "loo": 3600,
      "aroo": 3601,
      "Ġneat": 3602,
      "ugged": 3603,
      "angaroo": 3604,
      "Ġspinning": 3605,
      "Ġnature": 3606,
      "Ġshel": 3607,
      "Ġkangaroo": 3608,
      "Ġchasing": 3609,
      "Ġcelebrate": 3610,
      "Ġpattern": 3611,
      "Ġled": 3612,
      "Ġmoder": 3613,
      "Ġpasta": 3614,
      "Ġwheels": 3615,
      "Ġnames": 3616,
      "Ġtruth": 3617,
      "Ġordinary": 3618,
      "Ġhammer": 3619,
      "ÅĵLetÃ¢": 3620,
      "Ġhippo": 3621,
      "Ġmask": 3622,
      "Ġsurf": 3623,
      "Ġtorn": 3624,
      "Ġencou": 3625,
      "Ow": 3626,
      "Ġresist": 3627,
      "Ġcoco": 3628,
      "Ġimpat": 3629,
      "ĠGrandpa": 3630,
      "Ġcocoa": 3631,
      "See": 3632,
      "Ġgoose": 3633,
      "Ġstat": 3634,
      "ĠAlex": 3635,
      "ÅĵIt": 3636,
      "Ġphot": 3637,
      "ĠEllie": 3638,
      "Ġacorn": 3639,
      "uddy": 3640,
      "Ġperform": 3641,
      "eer": 3642,
      "Ġbent": 3643,
      "Ġpand": 3644,
      "Ġotter": 3645,
      "ĠKim": 3646,
      "Ġgrowing": 3647,
      "Ġimpatient": 3648,
      "Ġmath": 3649,
      "iches": 3650,
      "ĠWh": 3651,
      "Ġskip": 3652,
      "Ġsnuggled": 3653,
      "Ġcrazy": 3654,
      "Ġsleeping": 3655,
      "ffee": 3656,
      "Ġprize": 3657,
      "Ġharmless": 3658,
      "Ġmodern": 3659,
      "ray": 3660,
      "Ġoat": 3661,
      "orant": 3662,
      "Ġshine": 3663,
      "Ġrece": 3664,
      "Ġscale": 3665,
      "ÅĵWhat": 3666,
      "Ġfireman": 3667,
      "Ġcrane": 3668,
      "Ġrestaur": 3669,
      "Ġmagnet": 3670,
      "Ġrestaurant": 3671,
      "Ġbeauty": 3672,
      "Ġtrash": 3673,
      "Ġwindows": 3674,
      "Ġsplit": 3675,
      "Ġattract": 3676,
      "Ġpotato": 3677,
      "Ġdestroy": 3678,
      "ĠHere": 3679,
      "Ġreind": 3680,
      "ĠFr": 3681,
      "Ġhanded": 3682,
      "Ġunpack": 3683,
      "Ġshoe": 3684,
      "Ġplaced": 3685,
      "Ġintelligent": 3686,
      "ĠMike": 3687,
      "ĠLook": 3688,
      "Ġspoke": 3689,
      "Ġcricket": 3690,
      "Go": 3691,
      "llip": 3692,
      "Ġcompassionate": 3693,
      "Ġdisgusting": 3694,
      "llipop": 3695,
      "cut": 3696,
      "Ġsofa": 3697,
      "Ġumbrella": 3698,
      "Ġtem": 3699,
      "Ġahead": 3700,
      "Ġload": 3701,
      "Ġlollipop": 3702,
      "Ġstarts": 3703,
      "noon": 3704,
      "Ġsuper": 3705,
      "Ġafternoon": 3706,
      "Ġdrawer": 3707,
      "Ġwheat": 3708,
      "Ġdistant": 3709,
      "Ġsandwiches": 3710,
      "Ġcandle": 3711,
      "Ġwaff": 3712,
      "ĠSm": 3713,
      "Ġyawn": 3714,
      "Ġignorant": 3715,
      "ince": 3716,
      "Ġchance": 3717,
      "ĠFin": 3718,
      "ĠCl": 3719,
      "ips": 3720,
      "aches": 3721,
      "Ġtriang": 3722,
      "ĠSnow": 3723,
      "Ġreindeer": 3724,
      "ikes": 3725,
      "oe": 3726,
      "Ġdug": 3727,
      "Ġhedge": 3728,
      "Ġrules": 3729,
      "Ġcountry": 3730,
      "Ġspring": 3731,
      "ophone": 3732,
      "Ġpigeon": 3733,
      "aby": 3734,
      "Ġhook": 3735,
      "Ġshield": 3736,
      "Ġreco": 3737,
      "Ġflour": 3738,
      "Ġtrop": 3739,
      "Ġclock": 3740,
      "Ġbin": 3741,
      "Ġpurse": 3742,
      "Ġshut": 3743,
      "Ġcoffee": 3744,
      "ĠcouldnÃ¢": 3745,
      "Ġsupport": 3746,
      "Ġrestless": 3747,
      "Ġhung": 3748,
      "Ġcupboard": 3749,
      "Ġtire": 3750,
      "Ġharsh": 3751,
      "Ġcord": 3752,
      "Ġol": 3753,
      "Ġjug": 3754,
      "Ġorder": 3755,
      "Ġgifted": 3756,
      "Ġmailbox": 3757,
      "ĠTweetie": 3758,
      "Ġtrophy": 3759,
      "Ġsym": 3760,
      "erable": 3761,
      "Ġmay": 3762,
      "ict": 3763,
      "used": 3764,
      "Ġjumps": 3765,
      "ophie": 3766,
      "cano": 3767,
      "Ġnote": 3768,
      "Ġsadly": 3769,
      "Ġcats": 3770,
      "Ġshrimp": 3771,
      "Ġsilver": 3772,
      "Ġmiserable": 3773,
      "af": 3774,
      "Ġsend": 3775,
      "Ġshadow": 3776,
      "ices": 3777,
      "Ġmush": 3778,
      "Ġpretending": 3779,
      "cycle": 3780,
      "Ġfilm": 3781,
      "Ġcrocodile": 3782,
      "gu": 3783,
      "Ġax": 3784,
      "Ġitself": 3785,
      "Ġleop": 3786,
      "aser": 3787,
      "ĠPolly": 3788,
      "gging": 3789,
      "Ġengine": 3790,
      "Yay": 3791,
      "cu": 3792,
      "ibb": 3793,
      "shed": 3794,
      "Ġcamp": 3795,
      "bol": 3796,
      "Ġfurther": 3797,
      "Ġcourage": 3798,
      "Ġpracticed": 3799,
      "Ġhurry": 3800,
      "Ġmelon": 3801,
      "Ġmuff": 3802,
      "Ġanywhere": 3803,
      "Ġimpro": 3804,
      "Ġobject": 3805,
      "Ġcomputer": 3806,
      "Ġsymbol": 3807,
      "gn": 3808,
      "Ġbri": 3809,
      "Ġfu": 3810,
      "Ġmill": 3811,
      "Ġvine": 3812,
      "uct": 3813,
      "Ġvol": 3814,
      "Ġtrick": 3815,
      "Ġcreatures": 3816,
      "Ġgoal": 3817,
      "Ġcompl": 3818,
      "ÅĵYes": 3819,
      "Ġtowers": 3820,
      "Ġjeep": 3821,
      "Ġenth": 3822,
      "aled": 3823,
      "Ġrose": 3824,
      "Ġpainter": 3825,
      "Ġrepe": 3826,
      "Ġrice": 3827,
      "Ġstack": 3828,
      "Ġcooler": 3829,
      "Ġreading": 3830,
      "Alice": 3831,
      "Ġenvious": 3832,
      "Ġpony": 3833,
      "ĠSandy": 3834,
      "Ġstation": 3835,
      "Ġparade": 3836,
      "Ġwishes": 3837,
      "az": 3838,
      "Ġneedle": 3839,
      "Ġcryst": 3840,
      "Ġforgave": 3841,
      "Ġcartoon": 3842,
      "iron": 3843,
      "stri": 3844,
      "Ġkay": 3845,
      "ĠAre": 3846,
      "ÅĵThat": 3847,
      "ĠToby": 3848,
      "Ġtreasures": 3849,
      "Ġstretched": 3850,
      "Ġaxe": 3851,
      "Ġenthus": 3852,
      "Ġreward": 3853,
      "Ġnowhere": 3854,
      "Ġhelmet": 3855,
      "Ġattractive": 3856,
      "ric": 3857,
      "Ġjet": 3858,
      "Ġhelpless": 3859,
      "Ġlaser": 3860,
      "Ġolder": 3861,
      "ĠGive": 3862,
      "Ġbrighter": 3863,
      "Ġsecond": 3864,
      "Ġtroubled": 3865,
      "Ġletters": 3866,
      "Ġsweater": 3867,
      "Ġoy": 3868,
      "Ġscold": 3869,
      "ĠEventually": 3870,
      "Ġmessage": 3871,
      "Ġpastry": 3872,
      "Ġfootball": 3873,
      "cream": 3874,
      "Ġten": 3875,
      "Ġbadly": 3876,
      "Ġtrack": 3877,
      "Ġpackage": 3878,
      "Ġvalue": 3879,
      "ĠBrownie": 3880,
      "Ġcompetitive": 3881,
      "Ġcushion": 3882,
      "Ġscooter": 3883,
      "Ġpanda": 3884,
      "Ġpilot": 3885,
      "Ġrecogn": 3886,
      "Ġmushroom": 3887,
      "Ġtheater": 3888,
      "Ġpor": 3889,
      "ĠTr": 3890,
      "Ġsock": 3891,
      "Ġalert": 3892,
      "ĠWhere": 3893,
      "Ġpressed": 3894,
      "Ġgloomy": 3895,
      "Ġtricks": 3896,
      "Ġvisited": 3897,
      "Ġgiggle": 3898,
      "ebra": 3899,
      "Ġsalt": 3900,
      "Ġfearful": 3901,
      "Ġmicr": 3902,
      "Ġhall": 3903,
      "htub": 3904,
      "Ġspell": 3905,
      "Ġanyway": 3906,
      "ĠPe": 3907,
      "Ġbandage": 3908,
      "Ġhuman": 3909,
      "orable": 3910,
      "Ġbeep": 3911,
      "Ġswitch": 3912,
      "Ġtear": 3913,
      "ĠPaul": 3914,
      "Ġshouts": 3915,
      "Ġdeaf": 3916,
      "Ġadmire": 3917,
      "Ġbathtub": 3918,
      "Ġeraser": 3919,
      "Re": 3920,
      "ef": 3921,
      "kelet": 3922,
      "Ġzebra": 3923,
      "Ġpengu": 3924,
      "Ġbarrel": 3925,
      "Ġcows": 3926,
      "Ġvolcano": 3927,
      "Ġmicrophone": 3928,
      "orilla": 3929,
      "Ġener": 3930,
      "Ġthread": 3931,
      "Ġswinging": 3932,
      "Ġroared": 3933,
      "Ġraven": 3934,
      "Ġbounced": 3935,
      "hino": 3936,
      "Ġsoldier": 3937,
      "Ġavoc": 3938,
      "Ġleopard": 3939,
      "stairs": 3940,
      "Ġstarting": 3941,
      "Ġtray": 3942,
      "Ġstatue": 3943,
      "Ġsize": 3944,
      "Ġhive": 3945,
      "opus": 3946,
      "Ġholes": 3947,
      "Ġstrugg": 3948,
      "ctopus": 3949,
      "ĠPat": 3950,
      "Ġobser": 3951,
      "Ġnuts": 3952,
      "Ġmodest": 3953,
      "iskers": 3954,
      "ĠSmith": 3955,
      "ci": 3956,
      "year": 3957,
      "Ġsent": 3958,
      "ĠLola": 3959,
      "Ġpeach": 3960,
      "Ġadorable": 3961,
      "Benny": 3962,
      "Ġsquash": 3963,
      "ebook": 3964,
      "Ġsteps": 3965,
      "Ġriding": 3966,
      "keleton": 3967,
      "Mary": 3968,
      "Ġoctopus": 3969,
      "ckey": 3970,
      "Ġnotebook": 3971,
      "Ġhockey": 3972,
      "Ġrespectful": 3973,
      "Ġcurt": 3974,
      "Ġlip": 3975,
      "Ġshaking": 3976,
      "Ġbackpack": 3977,
      "Ġchain": 3978,
      "Ġcurtain": 3979,
      "Ġants": 3980,
      "Ġfive": 3981,
      "Ġmop": 3982,
      "Ġgorilla": 3983,
      "Ġbehave": 3984,
      "Ġhaircut": 3985,
      "Ġwallet": 3986,
      "Ġshopkeeper": 3987,
      "ceros": 3988,
      "Ġfilthy": 3989,
      "strich": 3990,
      "hinoceros": 3991,
      "Ġur": 3992,
      "ceed": 3993,
      "Ġeither": 3994,
      "Ġboots": 3995,
      "Ġpulls": 3996,
      "Ġtripped": 3997,
      "Ġpapers": 3998,
      "Ġstirred": 3999,
      "Give": 4000,
      "If": 4001,
      "Ġpad": 4002,
      "ĠMandy": 4003,
      "Ġnobody": 4004,
      "Ġsunset": 4005,
      "Ġexplain": 4006,
      "Ġchecked": 4007,
      "Ġsandbox": 4008,
      "ccol": 4009,
      "arnt": 4010,
      "Ġlearnt": 4011,
      "Ġsort": 4012,
      "Ġavail": 4013,
      "Ġdecorate": 4014,
      "ccoli": 4015,
      "erc": 4016,
      "Ġmug": 4017,
      "Ġpun": 4018,
      "Ġgolf": 4019,
      "Ġmeas": 4020,
      "Ġquar": 4021,
      "ĠGeorge": 4022,
      "ĠRo": 4023,
      "Ġpushing": 4024,
      "Ġmotorcycle": 4025,
      "Ġrescue": 4026,
      "Ġcrystal": 4027,
      "ipping": 4028,
      "Ġrhinoceros": 4029,
      "Ġsomewhere": 4030,
      "Ġvest": 4031,
      "Ġpebble": 4032,
      "Ġart": 4033,
      "Ġlightning": 4034,
      "Ġsailor": 4035,
      "Ġcooked": 4036,
      "Ġpowder": 4037,
      "iest": 4038,
      "Ġstared": 4039,
      "Ġshort": 4040,
      "ief": 4041,
      "Ġclapping": 4042,
      "Ġrolling": 4043,
      "Ġgiraffe": 4044,
      "Ġporch": 4045,
      "Ġskeleton": 4046,
      "Ġdess": 4047,
      "ĠBunny": 4048,
      "Ġvi": 4049,
      "ĠEverything": 4050,
      "Ġjokes": 4051,
      "Ġexper": 4052,
      "ses": 4053,
      "Ġbet": 4054,
      "render": 4055,
      "Ġincl": 4056,
      "Ġunlock": 4057,
      "Ġavailable": 4058,
      "reci": 4059,
      "Ġcomet": 4060,
      "ĠBuddy": 4061,
      "sely": 4062,
      "Ġtrains": 4063,
      "Ġdishes": 4064,
      "Ġpoint": 4065,
      "Ġorganize": 4066,
      "Ġsucceed": 4067,
      "Ġkayak": 4068,
      "par": 4069,
      "Ġhappier": 4070,
      "seum": 4071,
      "Ġexerc": 4072,
      "Ġleash": 4073,
      "ucked": 4074,
      "Ġquite": 4075,
      "enry": 4076,
      "ooped": 4077,
      "Ġstom": 4078,
      "Ġhadn": 4079,
      "Ġsepar": 4080,
      "Ġlaund": 4081,
      "astic": 4082,
      "Ġlistening": 4083,
      "osie": 4084,
      "Ġbarking": 4085,
      "Ġpaws": 4086,
      "Ġfrowned": 4087,
      "hood": 4088,
      "ube": 4089,
      "Ġtur": 4090,
      "Ġtoil": 4091,
      "elery": 4092,
      "Ġmuseum": 4093,
      "Ġcolours": 4094,
      "Ġclimbing": 4095,
      "Ġappreci": 4096,
      "Ġcomplete": 4097,
      "Ġtriangle": 4098,
      "Ġcase": 4099,
      "Ġweather": 4100,
      "Ġseal": 4101,
      "ummer": 4102,
      "Ġpeek": 4103,
      "Ġunh": 4104,
      "Ġzipper": 4105,
      "Ġdessert": 4106,
      "Ġlaundry": 4107,
      "night": 4108,
      "ĠSh": 4109,
      "Ġcane": 4110,
      "Ġbroccoli": 4111,
      "ĠJoey": 4112,
      "Little": 4113,
      "inking": 4114,
      "Ġreef": 4115,
      "ĠMaria": 4116,
      "ĠWhiskers": 4117,
      "ubby": 4118,
      "Ġiron": 4119,
      "Ġputting": 4120,
      "Ġclosely": 4121,
      "Ġpushes": 4122,
      "Ġmonkeys": 4123,
      "Ġsurrender": 4124,
      "Jenny": 4125,
      "cast": 4126,
      "Ġpipe": 4127,
      "Ġyach": 4128,
      "Ġspir": 4129,
      "Ġbreat": 4130,
      "Ġlions": 4131,
      "Ġblowing": 4132,
      "io": 4133,
      "Ġsle": 4134,
      "Ġped": 4135,
      "urb": 4136,
      "Ġmarched": 4137,
      "Ġdisturb": 4138,
      "Ġspeak": 4139,
      "Ġturkey": 4140,
      "Ġtoilet": 4141,
      "Bye": 4142,
      "aked": 4143,
      "ges": 4144,
      "ron": 4145,
      "Ġbicy": 4146,
      "Ġfinds": 4147,
      "Ġskill": 4148,
      "Ġdrawings": 4149,
      "Ġbarks": 4150,
      "Ġlively": 4151,
      "Ġstuffed": 4152,
      "heart": 4153,
      "Ġnail": 4154,
      "Ġrever": 4155,
      "ĠAndy": 4156,
      "Ġpair": 4157,
      "Ġsandcast": 4158,
      "Ġnapkin": 4159,
      "Ġended": 4160,
      "Ġdancer": 4161,
      "Ġpolish": 4162,
      "Ġcostume": 4163,
      "ĠSnowy": 4164,
      "Ġyacht": 4165,
      "Ġostrich": 4166,
      "anic": 4167,
      "Ġink": 4168,
      "Ġfort": 4169,
      "Ġsoftly": 4170,
      "Ġmild": 4171,
      "iling": 4172,
      "Ġribb": 4173,
      "chanic": 4174,
      "ected": 4175,
      "Ġraining": 4176,
      "olin": 4177,
      "gs": 4178,
      "vator": 4179,
      "Ġtube": 4180,
      "Ġlid": 4181,
      "Ġoil": 4182,
      "Ġclub": 4183,
      "Ġchubby": 4184,
      "Ġuniver": 4185,
      "Ġappl": 4186,
      "Ġthanks": 4187,
      "Ġinf": 4188,
      "ecause": 4189,
      "Ġmechanic": 4190,
      "ĠWill": 4191,
      "play": 4192,
      "Ġcrow": 4193,
      "Ġpiano": 4194,
      "ĠGrace": 4195,
      "Ġelevator": 4196,
      "Ġbasketball": 4197,
      "aulif": 4198,
      "Ġbubble": 4199,
      "Ġhoping": 4200,
      "Ġbelt": 4201,
      "Ġmixer": 4202,
      "Ġstrip": 4203,
      "Ġunhappy": 4204,
      "Ġcaulif": 4205,
      "ison": 4206,
      "Ġglove": 4207,
      "Ġairport": 4208,
      "Ġspirit": 4209,
      "Ġwife": 4210,
      "Ġbikes": 4211,
      "Ġhut": 4212,
      "ites": 4213,
      "Ġinsist": 4214,
      "Ġpress": 4215,
      "Ġjudge": 4216,
      "Ġcups": 4217,
      "Ġwelcomed": 4218,
      "Ġframe": 4219,
      "Ġmagaz": 4220,
      "Ġgrabs": 4221,
      "Everyone": 4222,
      "Ġdrops": 4223,
      "Ġleaned": 4224,
      "edy": 4225,
      "Ġmama": 4226,
      "Ġthief": 4227,
      "stic": 4228,
      "Ġgrapes": 4229,
      "âĤ¬âĢľ": 4230,
      "Ġquarrel": 4231,
      "mand": 4232,
      "Ġevening": 4233,
      "Ġprov": 4234,
      "Ġrepair": 4235,
      "Ġbaseball": 4236,
      "Ġtemp": 4237,
      "ws": 4238,
      "Ġcelery": 4239,
      "ĠMillie": 4240,
      "Ġfactor": 4241,
      "iastic": 4242,
      "Ġbuzz": 4243,
      "Ġimagine": 4244,
      "Ġradish": 4245,
      "arlie": 4246,
      "Ġapologized": 4247,
      "Ġsneak": 4248,
      "Ġenthusiastic": 4249,
      "Ġoyster": 4250,
      "Ġtub": 4251,
      "Ġluck": 4252,
      "Ġmen": 4253,
      "Ġrag": 4254,
      "Ġgiven": 4255,
      "Ġdisplay": 4256,
      "Ġcounter": 4257,
      "Ġbreaks": 4258,
      "Ġcherries": 4259,
      "Ġshelter": 4260,
      "ĠBear": 4261,
      "Ġmule": 4262,
      "ĠdidnÃ¢": 4263,
      "Ġmarry": 4264,
      "Ġveil": 4265,
      "Ġzoomed": 4266,
      "Ġfactory": 4267,
      "aff": 4268,
      "azz": 4269,
      "zzy": 4270,
      "ĠBill": 4271,
      "Ġfisher": 4272,
      "Ġbicycle": 4273,
      "Ġlend": 4274,
      "Ġshade": 4275,
      "Ġfeelings": 4276,
      "Ġenergy": 4277,
      "Ġpoem": 4278,
      "Ġbul": 4279,
      "Ġhopes": 4280,
      "Ġfrogs": 4281,
      "Ġcauliflower": 4282,
      "imney": 4283,
      "Ġrod": 4284,
      "Ġprun": 4285,
      "Ġchimney": 4286,
      "Ġbears": 4287,
      "Grandma": 4288,
      "Daisy": 4289,
      "Ġfurn": 4290,
      "iture": 4291,
      "Ġweep": 4292,
      "Ġpole": 4293,
      "Ġstretch": 4294,
      "Ġfurniture": 4295,
      "Ġgym": 4296,
      "Ġplayer": 4297,
      "apa": 4298,
      "Ġraft": 4299,
      "Ġmaze": 4300,
      "Ġpaid": 4301,
      "Ġbulb": 4302,
      "ense": 4303,
      "any": 4304,
      "Ġstaff": 4305,
      "chair": 4306,
      "Ġshakes": 4307,
      "icer": 4308,
      "ippery": 4309,
      "ccer": 4310,
      "Ġdive": 4311,
      "Ġsoccer": 4312,
      "Ġlives": 4313,
      "Ġkitty": 4314,
      "rod": 4315,
      "Ġintrod": 4316,
      "Ġslippery": 4317,
      "Ġcheek": 4318,
      "Ġattention": 4319,
      "Ġneighbour": 4320,
      "Ġsheet": 4321,
      "Ġnews": 4322,
      "Ġskirt": 4323,
      "Ġtrail": 4324,
      "Ġsmells": 4325,
      "Ġfalling": 4326,
      "Ġperfectly": 4327,
      "Ġphoto": 4328,
      "Ġviolin": 4329,
      "eath": 4330,
      "gen": 4331,
      "Ġbur": 4332,
      "Ġpine": 4333,
      "Ġknot": 4334,
      "ĠJerry": 4335,
      "Ġchirp": 4336,
      "Ġquit": 4337,
      "ĠRu": 4338,
      "ĠRosie": 4339,
      "Ġmarried": 4340,
      "Ġbananas": 4341,
      "Ġsummer": 4342,
      "Ġlang": 4343,
      "Ġpage": 4344,
      "Ġlie": 4345,
      "Ġfirework": 4346,
      "Ġsweetheart": 4347,
      "Ġcrib": 4348,
      "Ġlangu": 4349,
      "Ġlime": 4350,
      "Ġonion": 4351,
      "Ġreve": 4352,
      "Ġarmchair": 4353,
      "Ġsprink": 4354,
      "Ġbelongs": 4355,
      "Ġcardboard": 4356,
      "Ġgolden": 4357,
      "Ġcabinet": 4358,
      "ait": 4359,
      "low": 4360,
      "men": 4361,
      "Ġsir": 4362,
      "aring": 4363,
      "Ġgro": 4364,
      "ories": 4365,
      "Ġshouldn": 4366,
      "Ġwool": 4367,
      "ĠSophie": 4368,
      "ĠWould": 4369,
      "ĠLee": 4370,
      "Ġtrave": 4371,
      "Ġsticky": 4372,
      "Ġpuddles": 4373,
      "Ġfields": 4374,
      "Ġtuna": 4375,
      "Ġchickens": 4376,
      "bul": 4377,
      "ĠSee": 4378,
      "stead": 4379,
      "Ġscolded": 4380,
      "inarian": 4381,
      "Ġswung": 4382,
      "Ġvide": 4383,
      "ÅĵYou": 4384,
      "eterinarian": 4385,
      "..": 4386,
      "Ġtherm": 4387,
      "Ġsoil": 4388,
      "Ġstraight": 4389,
      "Ġburned": 4390,
      "Ġavocado": 4391,
      "eve": 4392,
      "Ġherb": 4393,
      "Ġrot": 4394,
      "hero": 4395,
      "ometer": 4396,
      "Ġflies": 4397,
      "Ġveterinarian": 4398,
      "Ġprevent": 4399,
      "izes": 4400,
      "reeze": 4401,
      "Ġdisag": 4402,
      "Ġpirates": 4403,
      "Ġfisherman": 4404,
      "ween": 4405,
      "Ġnovel": 4406,
      "aud": 4407,
      "Ġoffer": 4408,
      "Ġshovel": 4409,
      "Ġcreated": 4410,
      "Ġpetals": 4411,
      "Ġjourn": 4412,
      "Ġimagination": 4413,
      "Daddy": 4414,
      "Ġsuperhero": 4415,
      "Ġbetween": 4416,
      "Ġmeeting": 4417,
      "Ġclassroom": 4418,
      "Ġglowing": 4419,
      "hic": 4420,
      "Ġplastic": 4421,
      "Ġtwink": 4422,
      "Ġopera": 4423,
      "Ġvehic": 4424,
      "Ġkingdom": 4425,
      "Ġmistakes": 4426,
      "Ġmemories": 4427,
      "Ġthermometer": 4428,
      "Ch": 4429,
      "Ġble": 4430,
      "Ġcell": 4431,
      "Ġpal": 4432,
      "unately": 4433,
      "Ġseeing": 4434,
      "Ġshoulder": 4435,
      "ĠKate": 4436,
      "anges": 4437,
      "Ġthrows": 4438,
      "Ġfishing": 4439,
      "aw": 4440,
      "lass": 4441,
      "Ġmeat": 4442,
      "Ġceiling": 4443,
      "Ġpassport": 4444,
      "Ġignored": 4445,
      "Ġjellyfish": 4446,
      "Ġslept": 4447,
      "ues": 4448,
      "Ġtax": 4449,
      "ĠBun": 4450,
      "Ġforgotten": 4451,
      "Ġcelebrated": 4452,
      "Ġradio": 4453,
      "Ġdoors": 4454,
      "ngth": 4455,
      "Ġteleph": 4456,
      "Ġjournal": 4457,
      "Next": 4458,
      "rs": 4459,
      "Ġoak": 4460,
      "Ġmakeup": 4461,
      "Ġheads": 4462,
      "Ġpresents": 4463,
      "Ġaccepted": 4464,
      "Ġtelephone": 4465,
      "Because": 4466,
      "arm": 4467,
      "Ġstro": 4468,
      "Ġallig": 4469,
      "Your": 4470,
      "agg": 4471,
      "Ġflame": 4472,
      "Ġvend": 4473,
      "ĠdonÃ¢": 4474,
      "Ġstrength": 4475,
      "Ġthrowing": 4476,
      "Ġpinch": 4477,
      "Today": 4478,
      "Ġinfant": 4479,
      "ents": 4480,
      "Ġvet": 4481,
      "Emma": 4482,
      "Ġfile": 4483,
      "chie": 4484,
      "Ġloop": 4485,
      "Ġswamp": 4486,
      "Ġambul": 4487,
      "Ġpoints": 4488,
      "Inside": 4489,
      "Together": 4490,
      "ĠTrue": 4491,
      "Ġapplaud": 4492,
      "Ġgrocer": 4493,
      "Ġtaxi": 4494,
      "Eventually": 4495,
      "drobe": 4496,
      "vision": 4497,
      "urch": 4498,
      "Ġalive": 4499,
      "Ġwriting": 4500,
      "Ġshouting": 4501,
      "Ġbaking": 4502,
      "Ġplanet": 4503,
      "Ġwardrobe": 4504,
      "Ġrubber": 4505,
      "te": 4506,
      "Ġcree": 4507,
      "ores": 4508,
      "Ġseas": 4509,
      "Ġworth": 4510,
      "Ġsung": 4511,
      "Ġcube": 4512,
      "Ġdiscu": 4513,
      "Ġsteam": 4514,
      "Ġwinter": 4515,
      "Ġlemonade": 4516,
      "achel": 4517,
      "Ġmagazine": 4518,
      "Ġpalace": 4519,
      "Ġcreek": 4520,
      "Ġwags": 4521,
      "Ġfle": 4522,
      "Ġitch": 4523,
      "bbie": 4524,
      "Ġshower": 4525,
      "ĠInstead": 4526,
      "Ġdiary": 4527,
      "Ġsquirrels": 4528,
      "Ġattach": 4529,
      "Ġfolder": 4530,
      "Ġhanging": 4531,
      "Ġtelevision": 4532,
      "Ġstrawberry": 4533,
      "bor": 4534,
      "ium": 4535,
      "Ġaut": 4536,
      "Ġstable": 4537,
      "Ġboot": 4538,
      "Ġquack": 4539,
      "Ġgreedy": 4540,
      "Ġfog": 4541,
      "ĠPapa": 4542,
      "ggy": 4543,
      "nam": 4544,
      "Ġinse": 4545,
      "ssible": 4546,
      "Ġflapped": 4547,
      "Ġparent": 4548,
      "Ġprepare": 4549,
      "ĠAb": 4550,
      "Ġhelper": 4551,
      "Ġknob": 4552,
      "ĠLilly": 4553,
      "Ġchalk": 4554,
      "Ġfollows": 4555,
      "Ġsailing": 4556,
      "Ġsurround": 4557,
      "Ġmystery": 4558,
      "Ġmedal": 4559,
      "Ġsprayed": 4560,
      "ito": 4561,
      "Ġpra": 4562,
      "icop": 4563,
      "Ġvac": 4564,
      "Ġornam": 4565,
      "Ġmoves": 4566,
      "ĠNext": 4567,
      "Ġdisappear": 4568,
      "Ġserve": 4569,
      "Ġhelicop": 4570,
      "Ġargue": 4571,
      "Ġalligator": 4572,
      "Ġambulance": 4573,
      "Ġhelicopter": 4574,
      "sit": 4575,
      "tress": 4576,
      "ĠHelp": 4577,
      "ĠBaby": 4578,
      "Ġgrin": 4579,
      "Ġbelow": 4580,
      "Ġsigns": 4581,
      "Ġmattress": 4582,
      "Ġharbor": 4583,
      "Ġwaving": 4584,
      "una": 4585,
      "ĠJess": 4586,
      "rosc": 4587,
      "Ġdressed": 4588,
      "Ġfreez": 4589,
      "Ġstud": 4590,
      "Ġeagerly": 4591,
      "ĠUn": 4592,
      "lasses": 4593,
      "Ġsunglasses": 4594,
      "ĠSu": 4595,
      "Ġknown": 4596,
      "ups": 4597,
      "Ġminute": 4598,
      "Ġmicrosc": 4599,
      "ÅĵItÃ¢": 4600,
      "Ġvendor": 4601,
      "ab": 4602,
      "lier": 4603,
      "Ġpopped": 4604,
      "Ġfiref": 4605,
      "Ġcherry": 4606,
      "Ġmicroscope": 4607,
      "case": 4608,
      "Ġwine": 4609,
      "ising": 4610,
      "imi": 4611,
      "igail": 4612,
      "Ġweigh": 4613,
      "Ġrequ": 4614,
      "Ġrooms": 4615,
      "Ġgrill": 4616,
      "Ġletting": 4617,
      "Ġfallen": 4618,
      "Ġapart": 4619,
      "ĠAnnie": 4620,
      "Ġfauc": 4621,
      "Ġpear": 4622,
      "Ġberry": 4623,
      "Ġrefre": 4624,
      "Ġcomplain": 4625,
      "Ġlanguage": 4626,
      "Did": 4627,
      "Ġlawn": 4628,
      "estig": 4629,
      "ĠCo": 4630,
      "elcome": 4631,
      "Ġblackboard": 4632,
      "Ġinvestig": 4633,
      "Ġeasily": 4634,
      "Ġwipe": 4635,
      "Ann": 4636,
      "mm": 4637,
      "Ġbreeze": 4638,
      "inky": 4639,
      "Ġheaded": 4640,
      "Ġquietly": 4641,
      "aggie": 4642,
      "Ġfaucet": 4643,
      "tain": 4644,
      "Ġsince": 4645,
      "Ġcared": 4646,
      "omob": 4647,
      "iday": 4648,
      "Ġthumb": 4649,
      "amb": 4650,
      "Ġcob": 4651,
      "Ġtaller": 4652,
      "Ġentered": 4653,
      "ĠGod": 4654,
      "Ġcrossed": 4655,
      "Ġwhisper": 4656,
      "Ġhappens": 4657,
      "Ġleak": 4658,
      "quito": 4659,
      "Ġpoked": 4660,
      "Ġsque": 4661,
      "Ġchairs": 4662,
      "Ġearlier": 4663,
      "Ġkisses": 4664,
      "Ġrelaxed": 4665,
      "Ġreverse": 4666,
      "Ġautomob": 4667,
      "Ġig": 4668,
      "Ġsuff": 4669,
      "Ġfought": 4670,
      "Ġpur": 4671,
      "atie": 4672,
      "Ġstad": 4673,
      "Ġmusician": 4674,
      "Ġregret": 4675,
      "Ġcrawling": 4676,
      "Ġimprove": 4677,
      "Ġexercise": 4678,
      "Ġigloo": 4679,
      "Ġstadium": 4680,
      "Ġwaste": 4681,
      "ĠIÃ¢": 4682,
      "Ġalarm": 4683,
      "Ġcaring": 4684,
      "Ġchurch": 4685,
      "asis": 4686,
      "Ġdelay": 4687,
      "Ġdresses": 4688,
      "Ġcrash": 4689,
      "Ġapron": 4690,
      "Ġsniffed": 4691,
      "Ġwaffle": 4692,
      "Ġvacation": 4693,
      "Ġrequest": 4694,
      "Ġwigg": 4695,
      "Ġlumber": 4696,
      "chor": 4697,
      "Ġcliff": 4698,
      "Ġfastest": 4699,
      "Ġbalan": 4700,
      "Ġolive": 4701,
      "Ġseparate": 4702,
      "Ġinvestigate": 4703,
      "liday": 4704,
      "web": 4705,
      "yer": 4706,
      "Ġsizes": 4707,
      "ĠTony": 4708,
      "Ġpoke": 4709,
      "Ġholiday": 4710,
      "Ġairpl": 4711,
      "Ġinsect": 4712,
      "'.": 4713,
      "Lisa": 4714,
      "Ġoasis": 4715,
      "Ġsaus": 4716,
      "ĠWho": 4717,
      "Ġvroom": 4718,
      "Ġsurprises": 4719,
      "Ġappro": 4720,
      "Ġsparkle": 4721,
      "Ġpuzzles": 4722,
      "Ġskills": 4723,
      "squito": 4724,
      "Ġcable": 4725,
      "uckily": 4726,
      "Ġmosquito": 4727,
      "Thanks": 4728,
      "Ġscrew": 4729,
      "orses": 4730,
      "Ġshrink": 4731,
      "Ġyogurt": 4732,
      "Ġaer": 4733,
      "ero": 4734,
      "Ġyield": 4735,
      "Ġreaches": 4736,
      "opl": 4737,
      "Ġlotion": 4738,
      "Ġamazement": 4739,
      "Ġdear": 4740,
      "Ġspots": 4741,
      "fortunately": 4742,
      "Ġbouncing": 4743,
      "Ġdestination": 4744,
      "Ġscattered": 4745,
      "Ġcobweb": 4746,
      "Ġaeropl": 4747,
      "iately": 4748,
      "ler": 4749,
      "right": 4750,
      "Ġtucked": 4751,
      "Ġhorses": 4752,
      "ety": 4753,
      "Ġisn": 4754,
      "mediately": 4755,
      "Ġincre": 4756,
      "Ġsupply": 4757,
      "Ġsplashing": 4758,
      "Ġlawyer": 4759,
      "Wait": 4760,
      "was": 4761,
      "Ġrake": 4762,
      "sters": 4763,
      "Ġoranges": 4764,
      "Ġfloat": 4765,
      "Ġmint": 4766,
      "Ġsafety": 4767,
      "Ġtrusted": 4768,
      "Ġdishwas": 4769,
      "Ġdishwasher": 4770,
      "mend": 4771,
      "oral": 4772,
      "Ġunif": 4773,
      "Ġhearts": 4774,
      "Ġmailman": 4775,
      "Ġcollected": 4776,
      "Ġflutter": 4777,
      "Ġyawned": 4778,
      "Ġvehicle": 4779,
      "ives": 4780,
      "Ġpit": 4781,
      "ommend": 4782,
      "ĠitÃ¢": 4783,
      "Ġanchor": 4784,
      "aces": 4785,
      "Ġblueberries": 4786,
      "Ġfloated": 4787,
      "Ġshrugged": 4788,
      "Ġshooting": 4789,
      "Ġsqueeze": 4790,
      "Ġbother": 4791,
      "Ġsaving": 4792,
      "Ġlaught": 4793,
      "Ġrabbits": 4794,
      "Ġcastles": 4795,
      "Ġrecommend": 4796,
      "Ġspending": 4797,
      "ĠBuzz": 4798,
      "Ġmuffin": 4799,
      "Ġautomobile": 4800,
      "Is": 4801,
      "nger": 4802,
      "Ġtut": 4803,
      "Ġtug": 4804,
      "inked": 4805,
      "icing": 4806,
      "place": 4807,
      "Ġpoppy": 4808,
      "ction": 4809,
      "Ġdemand": 4810,
      "ĠRe": 4811,
      "Ġchoice": 4812,
      "Ġexamine": 4813,
      "Ġachie": 4814,
      "omes": 4815,
      "Ġlicks": 4816,
      "raged": 4817,
      "Ġspade": 4818,
      "ops": 4819,
      "âĤ¬.": 4820,
      "Ġquiz": 4821,
      "Ġhurting": 4822,
      "Ġconf": 4823,
      "Ġsparkling": 4824,
      "Ġworms": 4825,
      "Ġcandles": 4826,
      "Ġexperience": 4827,
      "Ġribbon": 4828,
      "ĠJames": 4829,
      "Ġkneel": 4830,
      "Ġstruc": 4831,
      "Ġbookcase": 4832,
      "Ġfollowing": 4833,
      "Ġsqueezed": 4834,
      "Ġuniform": 4835,
      "Ġlaughter": 4836,
      "Ġstructure": 4837,
      "ĠBet": 4838,
      "ĠMimi": 4839,
      "Ġagree": 4840,
      "Ġeaten": 4841,
      "Ġburied": 4842,
      "Ġraz": 4843,
      "Ġremove": 4844,
      "Sammy": 4845,
      "Ġbumped": 4846,
      "Ġpenguin": 4847,
      "Ġpraised": 4848,
      "Ġsigh": 4849,
      "Ġmention": 4850,
      "Ġplates": 4851,
      "Ġbury": 4852,
      "ĠCharlie": 4853,
      "Ġbeans": 4854,
      "Ġinclud": 4855,
      "Ġvideo": 4856,
      "cakes": 4857,
      "Ġsings": 4858,
      "Ġtong": 4859,
      "Ġrise": 4860,
      "Ġplays": 4861,
      "Ġspear": 4862,
      "Ġsnap": 4863,
      "Ġchess": 4864,
      "Ġinstr": 4865,
      "Ġminer": 4866,
      "Ġfuel": 4867,
      "Ġflea": 4868,
      "nies": 4869,
      "sing": 4870,
      "Ġsimp": 4871,
      "Ġscooped": 4872,
      "Ġblinked": 4873,
      "Ġhills": 4874,
      "Ġtornado": 4875,
      "Yuck": 4876,
      "Ġwashing": 4877,
      "Ġequ": 4878,
      "Ġsnapped": 4879,
      "Ġunderstanding": 4880,
      "ĠOr": 4881,
      "Ġignore": 4882,
      "Ġringing": 4883,
      "Ġcaptain": 4884,
      "ival": 4885,
      "Ġbattery": 4886,
      "Ġsettled": 4887,
      "Ġdestroyed": 4888,
      "Ġrazor": 4889,
      "Ġdried": 4890,
      "Ġmall": 4891,
      "ionary": 4892,
      "Ġkeeping": 4893,
      "Ġideas": 4894,
      "Ġgrowled": 4895,
      "Ġblankets": 4896,
      "Ġappreciate": 4897,
      "ĠRuby": 4898,
      "Ġtoes": 4899,
      "Ġpalm": 4900,
      "ĠRachel": 4901,
      "Ġadmir": 4902,
      "ictionary": 4903,
      "ib": 4904,
      "Ġfest": 4905,
      "ĠHenry": 4906,
      "ĠMiss": 4907,
      "Ġmanage": 4908,
      "Ġwatches": 4909,
      "Ġglo": 4910,
      "Ġfireplace": 4911,
      "ĠKing": 4912,
      "Ġsits": 4913,
      "Ġenter": 4914,
      "Ġwandered": 4915,
      "ĠClara": 4916,
      "Ġsandcastle": 4917,
      "Ġaeroplane": 4918,
      "Will": 4919,
      "ived": 4920,
      "ĠTed": 4921,
      "Ġmyself": 4922,
      "omeday": 4923,
      "Ġlabel": 4924,
      "Ġbleed": 4925,
      "Peter": 4926,
      "apping": 4927,
      "Ġdictionary": 4928,
      "Ġport": 4929,
      "ĠHarry": 4930,
      "amber": 4931,
      "Ġbravely": 4932,
      "Ġcoats": 4933,
      "Ġmelted": 4934,
      "Ġtide": 4935,
      "Ġyucky": 4936,
      "alley": 4937,
      "Ġjunk": 4938,
      "ĠDanny": 4939,
      "Ġsetting": 4940,
      "Ġjewelry": 4941,
      "Ġstrawberries": 4942,
      "Ġyoga": 4943,
      "Ġoats": 4944,
      "Ġfreezer": 4945,
      "loe": 4946,
      "ring": 4947,
      "Ġtore": 4948,
      "ĠIts": 4949,
      "Ġscore": 4950,
      "Ġroot": 4951,
      "Ġclaws": 4952,
      "uggage": 4953,
      "Ġsneeze": 4954,
      "Ġstomach": 4955,
      "Ġtutor": 4956,
      "Ġluggage": 4957,
      "Ġpages": 4958,
      "Ġpride": 4959,
      "Ġtrade": 4960,
      "Ġclimbs": 4961,
      "Ġgifts": 4962,
      "With": 4963,
      "Ġsomeday": 4964,
      "bey": 4965,
      "ĠSpike": 4966,
      "Ġfloating": 4967,
      "Ġmoments": 4968,
      "Ġplanes": 4969,
      "Ġhits": 4970,
      "Ġvanished": 4971,
      "Ġscratch": 4972,
      "Ġairplane": 4973,
      "Fl": 4974,
      "Ġbeamed": 4975,
      "Ġprop": 4976,
      "Ġappear": 4977,
      "Mandy": 4978,
      "umble": 4979,
      "antly": 4980,
      "Ġbelieved": 4981,
      "Ġbeef": 4982,
      "Ġsub": 4983,
      "Ġrepeat": 4984,
      "Ġstruggling": 4985,
      "rise": 4986,
      "Ġga": 4987,
      "ĠIs": 4988,
      "Ġweap": 4989,
      "Ġblueberry": 4990,
      "Ġburning": 4991,
      "ĠBefore": 4992,
      "Ġtemple": 4993,
      "ah": 4994,
      "ls": 4995,
      "vet": 4996,
      "Ġdire": 4997,
      "Ġitem": 4998,
      "Ġchores": 4999,
      "Ġvalley": 5000,
      "Ġjogging": 5001,
      "emember": 5002,
      "Ġdrain": 5003,
      "Ġelephants": 5004,
      "Ġwhistling": 5005,
      "ĠSteve": 5006,
      "Ġweeks": 5007,
      "Ġtongue": 5008,
      "ĠTina": 5009,
      "ishing": 5010,
      "Ġgear": 5011,
      "Ġnation": 5012,
      "Ġshot": 5013,
      "Ġsport": 5014,
      "Ġimmediately": 5015,
      "Ġcalls": 5016,
      "Ġremain": 5017,
      "ission": 5018,
      "Ġcuddled": 5019,
      "Ġpermission": 5020,
      "Ġfestival": 5021,
      "Ġlily": 5022,
      "lend": 5023,
      "Ġhers": 5024,
      "Ġres": 5025,
      "Ġranch": 5026,
      "Ġchamber": 5027,
      "Ġpoison": 5028,
      "Ġsunrise": 5029,
      "Ġraise": 5030,
      "Ġcrunch": 5031,
      "Ġteaching": 5032,
      "Ġbathe": 5033,
      "house": 5034,
      "iers": 5035,
      "Ġhomes": 5036,
      "Ġpulling": 5037,
      "Ġsteak": 5038,
      "Ġpatiently": 5039,
      "Ġmarbles": 5040,
      "Ġbreathe": 5041,
      "Ġprovide": 5042,
      "Ġhesit": 5043,
      "ĠHave": 5044,
      "uture": 5045,
      "seek": 5046,
      "ĠEach": 5047,
      "aped": 5048,
      "Ġcalend": 5049,
      "Ġpeanuts": 5050,
      "ĠAbigail": 5051,
      "Ġcalendar": 5052,
      "'ve": 5053,
      "osed": 5054,
      "Ġfuture": 5055,
      "Ġstitch": 5056,
      "Ġjazz": 5057,
      "Ġspit": 5058,
      "Ġwarmth": 5059,
      "Ġpaused": 5060,
      "Ġbuckle": 5061,
      "Ġpastel": 5062,
      "Ġcollecting": 5063,
      "Ġticket": 5064,
      "ĠFreddy": 5065,
      "allow": 5066,
      "ipment": 5067,
      "Ġthrilled": 5068,
      "ĠGood": 5069,
      "Ġdifferen": 5070,
      "Ġhotel": 5071,
      "Ġprayed": 5072,
      "Ġapproached": 5073,
      "Ġgust": 5074,
      "Ġshed": 5075,
      "fume": 5076,
      "Ġalright": 5077,
      "Ġtease": 5078,
      "Ġwarning": 5079,
      "Ġencouraged": 5080,
      "Ġchirping": 5081,
      "Ġequipment": 5082,
      "Jen": 5083,
      "Mark": 5084,
      "Tweet": 5085,
      "Ġdaisy": 5086,
      "Ġbegged": 5087,
      "Ġsocks": 5088,
      "Ġshamp": 5089,
      "Ġcoal": 5090,
      "Ġskull": 5091,
      "Ġskipping": 5092,
      "Ġperfume": 5093,
      "Ġanswers": 5094,
      "Ġmissile": 5095,
      "Ġpanic": 5096,
      "Ġearthqu": 5097,
      "Ġpunish": 5098,
      "Ġinsisted": 5099,
      "Ġshampoo": 5100,
      "Ġcakes": 5101,
      "Ġnone": 5102,
      "Ġlick": 5103,
      "Ġrestore": 5104,
      "osity": 5105,
      "Ġsoldiers": 5106,
      "Ġtwisted": 5107,
      "mother": 5108,
      "These": 5109,
      "Ġmeowed": 5110,
      "Ġdoggy": 5111,
      "Ġhardly": 5112,
      "Ġguy": 5113,
      "Ġrespons": 5114,
      "Ġsolved": 5115,
      "Ġjewels": 5116,
      "Ġreceived": 5117,
      "Ġobserve": 5118,
      "Qu": 5119,
      "Welcome": 5120,
      "Ġlect": 5121,
      "Ġsore": 5122,
      "Ġevent": 5123,
      "Ġlic": 5124,
      "Ġsew": 5125,
      "Ġunite": 5126,
      "Ġreceive": 5127,
      "Ġbricks": 5128,
      "Ġrevealed": 5129,
      "Ġlecture": 5130,
      "Ouch": 5131,
      "fy": 5132,
      "Ġpist": 5133,
      "anna": 5134,
      "Ġbites": 5135,
      "Ġdeeper": 5136,
      "Ġordered": 5137,
      "Ġpistol": 5138,
      "act": 5139,
      "Ġbang": 5140,
      "Ġdigg": 5141,
      "Ġsty": 5142,
      "Ġfasc": 5143,
      "Ġcopper": 5144,
      "Ġcomfy": 5145,
      "Ġparts": 5146,
      "Ġmatches": 5147,
      "Ġpatterns": 5148,
      "Ġrecognized": 5149,
      "Ġrefreshed": 5150,
      "Ġemer": 5151,
      "Ġremained": 5152,
      "Ġworks": 5153,
      "Ġinvite": 5154,
      "ĠCoco": 5155,
      "Ġdigging": 5156,
      "Ġsip": 5157,
      "ities": 5158,
      "Ġrow": 5159,
      "Ġupstairs": 5160,
      "Ġjail": 5161,
      "Ġchir": 5162,
      "ases": 5163,
      "Ġblood": 5164,
      "Johnny": 5165,
      "Ġdrinking": 5166,
      "Ġwarn": 5167,
      "Ġsupposed": 5168,
      "Ġhate": 5169,
      "ĠJul": 5170,
      "Ġracing": 5171,
      "Ġmustache": 5172,
      "Ġdiscovery": 5173,
      "ÅĵThatÃ¢": 5174,
      "ĠPeople": 5175,
      "Ġdiscuss": 5176,
      "Ġgrinned": 5177,
      "Ġchirped": 5178,
      "All": 5179,
      "cc": 5180,
      "sity": 5181,
      "ari": 5182,
      "Ġrush": 5183,
      "Ġwherever": 5184,
      "Ġours": 5185,
      "Ġbookshe": 5186,
      "Ġcircus": 5187,
      "Ġurge": 5188,
      "Ġmeasured": 5189,
      "Ġsimple": 5190,
      "Ġfascin": 5191,
      "\",": 5192,
      "utty": 5193,
      "ĠMay": 5194,
      "Ġgirls": 5195,
      "Ġspill": 5196,
      "ĠLater": 5197,
      "Ġdecision": 5198,
      "Ġsunlight": 5199,
      "Ġmass": 5200,
      "Ġplanted": 5201,
      "Ġgrape": 5202,
      "Ġlicense": 5203,
      "bers": 5204,
      "eed": 5205,
      "riger": 5206,
      "Ġvel": 5207,
      "Ġbeg": 5208,
      "Ġeff": 5209,
      "aper": 5210,
      "Ġjogged": 5211,
      "Ġreplace": 5212,
      "Ġcrashed": 5213,
      "Ġpigs": 5214,
      "Ġapologize": 5215,
      "Ġrefriger": 5216,
      "Ġbuzzing": 5217,
      "Ġsuffer": 5218,
      "Ġearthquake": 5219,
      "Ġvelvet": 5220,
      "Ġrefrigerator": 5221,
      "Mmm": 5222,
      "Ġbak": 5223,
      "Ġobey": 5224,
      "allen": 5225,
      "ĠEveryday": 5226,
      "Ġglowed": 5227,
      "ĠPenny": 5228,
      "Ġwrites": 5229,
      "Ġactually": 5230,
      "Ġclearing": 5231,
      "oved": 5232,
      "Ġheat": 5233,
      "!\",": 5234,
      "Ġnewsp": 5235,
      "Ġraised": 5236,
      "ÅĵNo": 5237,
      "Ġbringing": 5238,
      "Ġeasier": 5239,
      "Ġselling": 5240,
      "Ġuniversity": 5241,
      "Ġweapon": 5242,
      "Ġdifference": 5243,
      "Sh": 5244,
      "tory": 5245,
      "ĠV": 5246,
      "Ġbill": 5247,
      "Ġhistory": 5248,
      "Ġchallen": 5249,
      "ĠJoy": 5250,
      "Ġrested": 5251,
      "Ġmarching": 5252,
      "Ġbathrobe": 5253,
      "Ġinvit": 5254,
      "Ġawe": 5255,
      "Ġsettle": 5256,
      "Ġcartoons": 5257,
      "Ġbookshelf": 5258,
      "Ġtoe": 5259,
      "oming": 5260,
      "Ġgain": 5261,
      "htray": 5262,
      "Ġashtray": 5263,
      "Ġworse": 5264,
      "Ġlaid": 5265,
      "Ġlets": 5266,
      "Ġturning": 5267,
      "Ġcontinue": 5268,
      "Ġsparkles": 5269,
      "Ġlands": 5270,
      "Before": 5271,
      "Ġdecorations": 5272,
      "Ġprepared": 5273,
      "kins": 5274,
      "Ġbes": 5275,
      "Ġfed": 5276,
      "enty": 5277,
      "Ġwhip": 5278,
      "Ġscur": 5279,
      "Ġflood": 5280,
      "ĠFo": 5281,
      "Ġstrang": 5282,
      "Ġremem": 5283,
      "ĠNot": 5284,
      "Ġcompany": 5285,
      "Ġspoons": 5286,
      "Ġfirefight": 5287,
      "ĠRemy": 5288,
      "Ġdare": 5289,
      "Ġslip": 5290,
      "Ġwatered": 5291,
      "Ġhated": 5292,
      "Ġagreement": 5293,
      "Ġbrick": 5294,
      "Ġmenu": 5295,
      "Ġremembers": 5296,
      "ging": 5297,
      "Ġsix": 5298,
      "Ġtremb": 5299,
      "bbled": 5300,
      "Ġproblems": 5301,
      "ude": 5302,
      "Ġsoared": 5303,
      "ĠMilly": 5304,
      "Ġfash": 5305,
      "Ġpossible": 5306,
      "izard": 5307,
      "Ġfamil": 5308,
      "Ġchewed": 5309,
      "irpy": 5310,
      "Ġadmiring": 5311,
      "Ġcrunchy": 5312,
      "Ġmitten": 5313,
      "Ġwanting": 5314,
      "Ġbrus": 5315,
      "Ġattached": 5316,
      "Ġexamined": 5317,
      "Ġtomatoes": 5318,
      "Ġdisagre": 5319,
      "Jake": 5320,
      "Would": 5321,
      "fied": 5322,
      "walk": 5323,
      "Ġweren": 5324,
      "indy": 5325,
      "Ġmonsters": 5326,
      "looking": 5327,
      "Ġsprinkles": 5328,
      "Ġbeside": 5329,
      "Moral": 5330,
      "Ġtip": 5331,
      "ĠLiz": 5332,
      "Ġslice": 5333,
      "Ġfixing": 5334,
      "Ġpracticing": 5335,
      "Ġvillag": 5336,
      "ÅĵIÃ¢": 5337,
      "Ġneighborhood": 5338,
      "Ġpupil": 5339,
      "Ġcurled": 5340,
      "Ġstrangers": 5341,
      "ha": 5342,
      "atch": 5343,
      "Ġrust": 5344,
      "Ġflap": 5345,
      "Ġoper": 5346,
      "Ġgrey": 5347,
      "Ġbrain": 5348,
      "Ġcub": 5349,
      "Ġtrapped": 5350,
      "Ġtracks": 5351,
      "ĠKatie": 5352,
      "Ġmouths": 5353,
      "Really": 5354,
      "Ġgrocery": 5355,
      "Ġsurrounded": 5356,
      "Ġeffort": 5357,
      "Ġnewspaper": 5358,
      "Ex": 5359,
      "cles": 5360,
      "hest": 5361,
      "Ġcal": 5362,
      "Ġonwards": 5363,
      "Ġweight": 5364,
      "ĠDan": 5365,
      "Ġpeel": 5366,
      "Ġwond": 5367,
      "Ġcontain": 5368,
      "Ġcutting": 5369,
      "Ġgloves": 5370,
      "Ro": 5371,
      "Ġwre": 5372,
      "Ġbun": 5373,
      "Ġhanger": 5374,
      "ĠLuna": 5375,
      "Ġflav": 5376,
      "Ġfreeze": 5377,
      "ĠChloe": 5378,
      "Emily": 5379,
      "nie": 5380,
      "xy": 5381,
      "Ġwaist": 5382,
      "Ġduring": 5383,
      "ays": 5384,
      "ora": 5385,
      "Ġspaces": 5386,
      "omething": 5387,
      "Ġperched": 5388,
      "Ġcomple": 5389,
      "Ġsidewalk": 5390,
      "Ġcollection": 5391,
      "Ġsafari": 5392,
      "Ġseats": 5393,
      "Ġguns": 5394,
      "Ġpinched": 5395,
      "Ġescaped": 5396,
      "Ġrides": 5397,
      "Ġmodel": 5398,
      "Ġsubway": 5399,
      "Ġvillagers": 5400,
      "Ġrhy": 5401,
      "asp": 5402,
      "Ġdownstairs": 5403,
      "Ġrained": 5404,
      "Ġtalent": 5405,
      "ĠNutty": 5406,
      "Ġbowed": 5407,
      "Ġbuildings": 5408,
      "Ġpaints": 5409,
      "Ġreminder": 5410,
      "Ġwisdom": 5411,
      "Ġargued": 5412,
      "ĠBubbles": 5413,
      "Ġcostumes": 5414,
      "Ġsausage": 5415,
      "Not": 5416,
      "ĠSund": 5417,
      "aded": 5418,
      "Ġwaits": 5419,
      "Ġdrinks": 5420,
      "Ġwhistled": 5421,
      "Ġintroduc": 5422,
      "Ġfashion": 5423,
      "uing": 5424,
      "Ġwizard": 5425,
      "Ġmister": 5426,
      "ĠBeth": 5427,
      "Ġmudd": 5428,
      "Ġgotten": 5429,
      "Ġzipped": 5430,
      "Ġfiremen": 5431,
      "Ġvisiting": 5432,
      "ĠFloppy": 5433,
      "Ġaccidents": 5434,
      "Ġsliding": 5435,
      "Ġtwigs": 5436,
      "Ġmemory": 5437,
      "Ġpermit": 5438,
      "Fluffy": 5439,
      "Le": 5440,
      "do": 5441,
      "dam": 5442,
      "neath": 5443,
      "Ġx": 5444,
      "Ġwid": 5445,
      "Ġpitch": 5446,
      "ĠHoppy": 5447,
      "adly": 5448,
      "ĠMaggie": 5449,
      "ĠFro": 5450,
      "Ġpeered": 5451,
      "ĠCat": 5452,
      "thm": 5453,
      "Ġzero": 5454,
      "Ġsteel": 5455,
      "Ġpetted": 5456,
      "Ġpancakes": 5457,
      "Ġprice": 5458,
      "Ġdinosaurs": 5459,
      "Ġmineral": 5460,
      "Ġbleeding": 5461,
      "Ġmuddy": 5462,
      "Ha": 5463,
      "Ġbones": 5464,
      "Ġweighed": 5465,
      "Ġpears": 5466,
      "Ġanytime": 5467,
      "Ġeagle": 5468,
      "Ġmountains": 5469,
      "Ġmeasuring": 5470,
      "Ġbunnies": 5471,
      "Ok": 5472,
      "Sometimes": 5473,
      "Yum": 5474,
      "ided": 5475,
      "Ġsting": 5476,
      "isten": 5477,
      "Ġpearl": 5478,
      "ÅĵThank": 5479,
      "Ġneighbors": 5480,
      "Ġfolded": 5481,
      "ĠChr": 5482,
      "Ġhurric": 5483,
      "reen": 5484,
      "Ġlamb": 5485,
      "Ġnavy": 5486,
      "Ġarea": 5487,
      "Ġbrid": 5488,
      "Ġbrushed": 5489,
      "Ġchef": 5490,
      "Ġvoices": 5491,
      "Ġshopping": 5492,
      "avi": 5493,
      "ĠOl": 5494,
      "Ġscratched": 5495,
      "Ġgrandmother": 5496,
      "Ġencourage": 5497,
      "Ġpadd": 5498,
      "Ġprune": 5499,
      "Ġbrings": 5500,
      "Ġmeow": 5501,
      "Ġdecides": 5502,
      "Ġbeds": 5503,
      "Ġswims": 5504,
      "Ġpets": 5505,
      "Ġbottles": 5506,
      "ĠSomeone": 5507,
      "Ġpillows": 5508,
      "Ġguessed": 5509,
      "Ġpedal": 5510,
      "Ġmassage": 5511,
      "Ġwonders": 5512,
      "!'": 5513,
      "ĠOnce": 5514,
      "Ġlung": 5515,
      "Ġripped": 5516,
      "riage": 5517,
      "Ġleather": 5518,
      "Ġsnowball": 5519,
      "Ġsecrets": 5520,
      "Ġcomforted": 5521,
      "Ġinvitation": 5522,
      "Ġhurricane": 5523,
      "cage": 5524,
      "mare": 5525,
      "son": 5526,
      "ides": 5527,
      "amie": 5528,
      "Ġhappiest": 5529,
      "ĠMat": 5530,
      "terday": 5531,
      "ica": 5532,
      "Ġbirdcage": 5533,
      "Ġrang": 5534,
      "Ġoverjoy": 5535,
      "ĠPoppy": 5536,
      "ĠLetÃ¢": 5537,
      "Ġcatching": 5538,
      "ĠChirpy": 5539,
      "ĠAnne": 5540,
      "Ġcuddle": 5541,
      "Ġornament": 5542,
      "ĠSuzy": 5543,
      "Ġfascinated": 5544,
      "Ġdisagreed": 5545,
      "Ġoverjoyed": 5546,
      "cious": 5547,
      "Ġscoop": 5548,
      "ĠLucky": 5549,
      "Ġstruck": 5550,
      "Ġglitter": 5551,
      "Ġunderground": 5552,
      "Ġstole": 5553,
      "Ġmarkers": 5554,
      "Ġzooming": 5555,
      "Ġwaffles": 5556,
      "Ready": 5557,
      "Ġinstruct": 5558,
      "Ġstyle": 5559,
      "Ġoperation": 5560,
      "xygen": 5561,
      "Ġrhythm": 5562,
      "Or": 5563,
      "ĠThese": 5564,
      "igz": 5565,
      "Ġpretti": 5566,
      "Ġsnail": 5567,
      "Ġkindly": 5568,
      "Ġpupp": 5569,
      "Ġbrand": 5570,
      "Ġnightmare": 5571,
      "Ġactiv": 5572,
      "ĠHowever": 5573,
      "Ġsneezed": 5574,
      "Ġrecognize": 5575,
      "Ġbridges": 5576,
      "Ġprettiest": 5577,
      "First": 5578,
      "Ġrele": 5579,
      "Ġexact": 5580,
      "Ġeveryday": 5581,
      "Ġblouse": 5582,
      "Ġvowed": 5583,
      "Ġteasp": 5584,
      "Ġrail": 5585,
      "Ġcones": 5586,
      "Ġtastes": 5587,
      "Ġdrift": 5588,
      "Ġsatis": 5589,
      "Ġwooden": 5590,
      "Ġdoctors": 5591,
      "laire": 5592,
      "Ġhurried": 5593,
      "Ġsucceeded": 5594,
      "Ġdisturbed": 5595,
      "Ġtravell": 5596,
      "ĠBetsy": 5597,
      "Ġteaspoon": 5598,
      "Susie": 5599,
      "mble": 5600,
      "oed": 5601,
      "Ġtugged": 5602,
      "Ġbare": 5603,
      "ĠMe": 5604,
      "Ġcontro": 5605,
      "Ġpiles": 5606,
      "Ġstudied": 5607,
      "Ġbillboard": 5608,
      "ĠSunday": 5609,
      "gers": 5610,
      "Ġoxygen": 5611,
      "etch": 5612,
      "Ġstruggled": 5613,
      "Ġimage": 5614,
      "Ġbye": 5615,
      "aster": 5616,
      "ÅĵLook": 5617,
      "Ġkeeps": 5618,
      "Ġcrept": 5619,
      "Ġtune": 5620,
      "Ġacorns": 5621,
      "Ġmuffins": 5622,
      "Ġlips": 5623,
      "ĠSharing": 5624,
      "Ġitems": 5625,
      "rin": 5626,
      "uke": 5627,
      "Ġlines": 5628,
      "Ġcaut": 5629,
      "ĠSomething": 5630,
      "Ġtremble": 5631,
      "anta": 5632,
      "Ġunderneath": 5633,
      "ÅĵDon": 5634,
      "Ġladyb": 5635,
      "Ġperfor": 5636,
      "Ġplanned": 5637,
      "Ġserved": 5638,
      "Ġbloomed": 5639,
      "Ġincluded": 5640,
      "Ġspaceship": 5641,
      "Happy": 5642,
      "len": 5643,
      "uzz": 5644,
      "imy": 5645,
      "Ġloving": 5646,
      "Ġofficer": 5647,
      "avid": 5648,
      "Ġsuitc": 5649,
      "Ġparked": 5650,
      "Ġscreams": 5651,
      "Ġtickets": 5652,
      "Ġsoaring": 5653,
      "Ġmentioned": 5654,
      "Ġresponsible": 5655,
      "Ġbegin": 5656,
      "ding": 5657,
      "Ġwagging": 5658,
      "Ġbeat": 5659,
      "Ġbeard": 5660,
      "ĠItÃ¢": 5661,
      "Ġsorting": 5662,
      "ÅĵWe": 5663,
      "Ġkeeper": 5664,
      "Ġcreation": 5665,
      "ffic": 5666,
      "Ġtraffic": 5667,
      "Ġlandsc": 5668,
      "Ġneighbourhood": 5669,
      "Ġcompleted": 5670,
      "Luckily": 5671,
      "Ġtonight": 5672,
      "ĠTiny": 5673,
      "Ġeight": 5674,
      "Ġeats": 5675,
      "Ġhonk": 5676,
      "Ġsights": 5677,
      "Ġshivered": 5678,
      "Ġpotatoes": 5679,
      "Ġolives": 5680,
      "Dave": 5681,
      "Rex": 5682,
      "Remember": 5683,
      "Ġbend": 5684,
      "Ġdied": 5685,
      "Ġgained": 5686,
      "Ġcuriosity": 5687,
      "Ġemergen": 5688,
      "Ġscurried": 5689,
      "Ġintroduced": 5690,
      "Ġinstructions": 5691,
      "Ġvent": 5692,
      "Ġprecious": 5693,
      "izing": 5694,
      "Ġpaintings": 5695,
      "Andy": 5696,
      "Ġdecorated": 5697,
      "Ġuniverse": 5698,
      ".'": 5699,
      "George": 5700,
      "Ġnicer": 5701,
      "Ġago": 5702,
      "Ġwhatever": 5703,
      "Ġrealize": 5704,
      "Ġsteep": 5705,
      "ĠJenna": 5706,
      "Ġaccom": 5707,
      "Ġmachines": 5708,
      "Ġmovies": 5709,
      "Ġcompetition": 5710,
      "Ġshadows": 5711,
      "Ġprunes": 5712,
      "Ġexactly": 5713,
      "Ġann": 5714,
      "Ġrocked": 5715,
      "Ġdraws": 5716,
      "Ġguest": 5717,
      "Ġprotected": 5718,
      "Ġsolut": 5719,
      "uctantly": 5720,
      "igzag": 5721,
      "Ġlandscape": 5722,
      "ux": 5723,
      "zen": 5724,
      "Ġsadness": 5725,
      "Ġslapped": 5726,
      "Ġowned": 5727,
      "ĠRa": 5728,
      "Ġbeha": 5729,
      "Ġprinter": 5730,
      "Ġfrosting": 5731,
      "Ġbeneath": 5732,
      "Ġpowers": 5733,
      "Ġintroduce": 5734,
      "lowly": 5735,
      "Ġproperly": 5736,
      "Ġwreck": 5737,
      "uxu": 5738,
      "Mar": 5739,
      "bies": 5740,
      "Ġbank": 5741,
      "ĠSunny": 5742,
      "Ġinch": 5743,
      "bert": 5744,
      "ĠJosh": 5745,
      "Ġshoulders": 5746,
      "Ġyelling": 5747,
      "Ġcontest": 5748,
      "Ġpouring": 5749,
      "Ġlemons": 5750,
      "Ġlibrarian": 5751,
      "Ġstealing": 5752,
      "âĤ¬âĢĿ": 5753,
      "Ġrubbing": 5754,
      "Ġpenguins": 5755,
      "Ġreleased": 5756,
      "Ye": 5757,
      "ales": 5758,
      "Ġluxu": 5759,
      "ĠTw": 5760,
      "Ġweb": 5761,
      "Ġknelt": 5762,
      "ĠRob": 5763,
      "Ġruin": 5764,
      "Ġbabies": 5765,
      "Ġsisters": 5766,
      "iggy": 5767,
      "Ġmixing": 5768,
      "Ġkeys": 5769,
      "ĠOllie": 5770,
      "Ġgathering": 5771,
      "Ġtwirling": 5772,
      "Ġsilence": 5773,
      "Ġurged": 5774,
      "fit": 5775,
      "hins": 5776,
      "rr": 5777,
      "ashed": 5778,
      "Ġstruggle": 5779,
      "Ġpurred": 5780,
      "Ġcontrol": 5781,
      "omas": 5782,
      "Ġtheirs": 5783,
      "Ġsorted": 5784,
      "Ġforgi": 5785,
      "Joey": 5786,
      "Ġfrozen": 5787,
      "Ġreluctantly": 5788,
      "Ġunlocked": 5789,
      "Ġcrackers": 5790,
      "Ġfireworks": 5791,
      "Ġbarely": 5792,
      "Ġaccompl": 5793,
      "mel": 5794,
      "Ġsides": 5795,
      "Ġmice": 5796,
      "ishes": 5797,
      "Ġsoak": 5798,
      "ĠBir": 5799,
      "Ġshock": 5800,
      "Ġoutdo": 5801,
      "Ġexit": 5802,
      "Ġbudge": 5803,
      "ĠCar": 5804,
      "Ġdragged": 5805,
      "Ġcrumb": 5806,
      "Ġmuscles": 5807,
      "Ġspiders": 5808,
      "Ġpunished": 5809,
      "Ġstripes": 5810,
      "Ġchallenge": 5811,
      "Teddy": 5812,
      "iar": 5813,
      "Ġdam": 5814,
      "Ġloose": 5815,
      "Ġoutfit": 5816,
      "ĠAn": 5817,
      "ÅĵCan": 5818,
      "Ġpastels": 5819,
      "Ġbouncy": 5820,
      "Ġdolphins": 5821,
      "ĠFrank": 5822,
      "Ġrepeated": 5823,
      "Ġachieve": 5824,
      "zing": 5825,
      "Ġ1": 5826,
      "ĠHop": 5827,
      "ppers": 5828,
      "Ġranger": 5829,
      "agull": 5830,
      "ĠFirst": 5831,
      "Ġopin": 5832,
      "thank": 5833,
      "though": 5834,
      "Ġwaiter": 5835,
      "Ġbreaking": 5836,
      "Ġprinted": 5837,
      "Ġwinning": 5838,
      "Ġpockets": 5839,
      "Ġexpect": 5840,
      "Ġexpected": 5841,
      "Ġroads": 5842,
      "Ġroaring": 5843,
      "Ġfigured": 5844,
      "ĠZoe": 5845,
      "Ġemergency": 5846,
      "rance": 5847,
      "Ġthro": 5848,
      "Ġlied": 5849,
      "Ġchases": 5850,
      "Ġbecoming": 5851,
      "bbing": 5852,
      "Ġbuckets": 5853,
      "Ġmission": 5854,
      "ĠStop": 5855,
      "Ġpoliceman": 5856,
      "uesday": 5857,
      "Ġbrushes": 5858,
      "Ġthroat": 5859,
      "ien": 5860,
      "shing": 5861,
      "Ġsi": 5862,
      "edding": 5863,
      "ĠTuesday": 5864,
      "ĠBig": 5865,
      "Ġseagull": 5866,
      "Ġclick": 5867,
      "ĠDid": 5868,
      "Ġpeaches": 5869,
      "Ġslimy": 5870,
      "ĠletÃ¢": 5871,
      "Ġwondering": 5872,
      "Ġplanets": 5873,
      "Ġentire": 5874,
      "Ġstirring": 5875,
      "Ġscreaming": 5876,
      "Ġclaps": 5877,
      "Ġdiscovering": 5878,
      "Ġcamping": 5879,
      "Ġcrowd": 5880,
      "ĠUncle": 5881,
      "Kitty": 5882,
      "pected": 5883,
      "Ġwest": 5884,
      "Ġtour": 5885,
      "Ġpies": 5886,
      "ĠLike": 5887,
      "Ġsnugg": 5888,
      "Ġsitu": 5889,
      "Ġstaring": 5890,
      "Ġstretching": 5891,
      "Ġsneaked": 5892,
      "Ġapplauded": 5893,
      "Ġincrease": 5894,
      "Ġguys": 5895,
      "ÅĵDonÃ¢": 5896,
      "Bella": 5897,
      "Un": 5898,
      "expected": 5899,
      "ĠJan": 5900,
      "Ġhomework": 5901,
      "Ġhowever": 5902,
      "ĠCindy": 5903,
      "Ġunexpected": 5904,
      "Ġseesaw": 5905,
      "Ġacted": 5906,
      "Ġspraying": 5907,
      "Ġcountryside": 5908,
      "Ġbalancing": 5909,
      "Ġsiren": 5910,
      "die": 5911,
      "zie": 5912,
      "Ġfart": 5913,
      "itely": 5914,
      "Ġda": 5915,
      "lee": 5916,
      "Ġworries": 5917,
      "Ġgoodnight": 5918,
      "Ġtouching": 5919,
      "Ġhighest": 5920,
      "Ġgiggling": 5921,
      "Goodbye": 5922,
      "ĠAlways": 5923,
      "Ġconfident": 5924,
      "Ġtrembling": 5925,
      "Ġcautious": 5926,
      "Ġsuitcase": 5927,
      "Ġoutdoors": 5928,
      "James": 5929,
      "Mr": 5930,
      "Pete": 5931,
      "bric": 5932,
      "jam": 5933,
      "Ġboo": 5934,
      "ern": 5935,
      "Ġheel": 5936,
      "Ġmittens": 5937,
      "ĠSanta": 5938,
      "Ġallow": 5939,
      "Ġfabric": 5940,
      "Ġteasing": 5941,
      "Ġbroom": 5942,
      "Ġourselves": 5943,
      "ults": 5944,
      "Ġmarriage": 5945,
      "Ġpassing": 5946,
      "Ġscru": 5947,
      "Ġleader": 5948,
      "ĠUnfortunately": 5949,
      "Ġdemanded": 5950,
      "Ġsighs": 5951,
      "Ġladybug": 5952,
      "jamas": 5953,
      "hell": 5954,
      "Ġcape": 5955,
      "ĠTilly": 5956,
      "Ġplenty": 5957,
      "Ġscra": 5958,
      "Ġmatching": 5959,
      "Ġrainbows": 5960,
      "Ġentrance": 5961,
      "Ġsupplies": 5962,
      "Ġshivering": 5963,
      "Ġnails": 5964,
      "Ġdirection": 5965,
      "annah": 5966,
      "Ġluxury": 5967,
      "Ella": 5968,
      "Henry": 5969,
      "Mike": 5970,
      "Mittens": 5971,
      "Ġtext": 5972,
      "vers": 5973,
      "Ġripe": 5974,
      "Ġstare": 5975,
      "Ġrelease": 5976,
      "inda": 5977,
      "Ġflat": 5978,
      "Ġvict": 5979,
      "ĠDavid": 5980,
      "Ġgrant": 5981,
      "ĠGr": 5982,
      "Ġsweets": 5983,
      "Ġbaked": 5984,
      "ulu": 5985,
      "Ġreaching": 5986,
      "Ġwinner": 5987,
      "Ġcompletely": 5988,
      "ĠJulie": 5989,
      "Ġsatisfied": 5990,
      "Ġsolution": 5991,
      "dies": 5992,
      "Ġmater": 5993,
      "essie": 5994,
      "aky": 5995,
      "Ġgreet": 5996,
      "Ġrestored": 5997,
      "Ġcuts": 5998,
      "...": 5999,
      "Ġtwinkling": 6000,
      "Ġtexture": 6001,
      "Ġmateri": 6002,
      "Ah": 6003,
      "Lola": 6004,
      "nes": 6005,
      "Ġti": 6006,
      "Ġwedding": 6007,
      "Ġheav": 6008,
      "ĠBy": 6009,
      "ĠLizzy": 6010,
      "ason": 6011,
      "Ġpoking": 6012,
      "ĠPip": 6013,
      "aced": 6014,
      "Ġsweeties": 6015,
      "Ġproject": 6016,
      "Ġcurly": 6017,
      "Ġsurface": 6018,
      "Ġcurtains": 6019,
      "Ġseason": 6020,
      "ĠJessie": 6021,
      "Ġbalanced": 6022,
      "Ġresult": 6023,
      "ody": 6024,
      "vin": 6025,
      "ĠYes": 6026,
      "Ġbunch": 6027,
      "Ġfara": 6028,
      "Ġge": 6029,
      "Ġeast": 6030,
      "ĠJon": 6031,
      "aren": 6032,
      "Ġsnakes": 6033,
      "ÅĵHello": 6034,
      "Ġwritten": 6035,
      "Ġpajamas": 6036,
      "Ġsinger": 6037,
      "ĠDolly": 6038,
      "Ġrolls": 6039,
      "Ġpastries": 6040,
      "Ġinterest": 6041,
      "Ġrescued": 6042,
      "Ġloaded": 6043,
      "cuse": 6044,
      "lowers": 6045,
      "Ġquacked": 6046,
      "Ġfaraway": 6047,
      "uly": 6048,
      "Ġwound": 6049,
      "ednes": 6050,
      "ĠSlowly": 6051,
      "ĠMad": 6052,
      "ĠJe": 6053,
      "Ġcomm": 6054,
      "Ġforehead": 6055,
      "Ġunited": 6056,
      "acob": 6057,
      "Ġzigzag": 6058,
      "Ġpolishing": 6059,
      "Ġmarker": 6060,
      "ĠOut": 6061,
      "Ġprayer": 6062,
      "Ġhorns": 6063,
      "Ġmelting": 6064,
      "Ġrecorded": 6065,
      "Ġstudying": 6066,
      "Ġtasks": 6067,
      "Ġpaddle": 6068,
      "Ġinclude": 6069,
      "Ġburrow": 6070,
      "Ġdisagree": 6071,
      "Ġkneeled": 6072,
      "Leo": 6073,
      "ednesday": 6074,
      "Paul": 6075,
      "ĠĠĊ": 6076,
      "ĠQu": 6077,
      "Ġboom": 6078,
      "ĠWednesday": 6079,
      "Ġflames": 6080,
      "Ġstrings": 6081,
      "ÅĵThis": 6082,
      "Ġcreating": 6083,
      "Ġmatched": 6084,
      "Ġdeser": 6085,
      "Ġtrips": 6086,
      "Ġcrabs": 6087,
      "Ġmagnets": 6088,
      "Ġshelves": 6089,
      "Excuse": 6090,
      "eep": 6091,
      "ĠSure": 6092,
      "Ġstair": 6093,
      "icorn": 6094,
      "Ġcatches": 6095,
      "Ġslap": 6096,
      "Ġbravery": 6097,
      "Ġunicorn": 6098,
      "Ġtowels": 6099,
      "Ġkicking": 6100,
      "Ġcheering": 6101,
      "ophia": 6102,
      "Ġvanish": 6103,
      "Ġdusty": 6104,
      "Ġphotos": 6105,
      "Bun": 6106,
      "pe": 6107,
      "Ëľ": 6108,
      "Ġwink": 6109,
      "Ġdent": 6110,
      "ena": 6111,
      "igi": 6112,
      "une": 6113,
      "Ġstartled": 6114,
      "âĤ¬Ëľ": 6115,
      "Ġchat": 6116,
      "Ġblink": 6117,
      "Ġpebbles": 6118,
      "ledge": 6119,
      "Ġbedtime": 6120,
      "Ġreplaced": 6121,
      "Ġsingle": 6122,
      "Ġdragons": 6123,
      "Ġmotion": 6124,
      "However": 6125,
      "Ġpencils": 6126,
      "Ġbumps": 6127,
      "Ġstamps": 6128,
      "Ġweeping": 6129,
      "Ġitchy": 6130,
      "Ġornaments": 6131,
      "Ġgazed": 6132,
      "Ġventured": 6133,
      "Fred": 6134,
      "go": 6135,
      "hee": 6136,
      "Ġsway": 6137,
      "Ġfetch": 6138,
      "irm": 6139,
      "ĠBird": 6140,
      "ĠBye": 6141,
      "ĠAdam": 6142,
      "Ġhugging": 6143,
      "Ġknowledge": 6144,
      "Ġtruly": 6145,
      "Ġworker": 6146,
      "Ġcracked": 6147,
      "Ġbuying": 6148,
      "Ġhealed": 6149,
      "Ġmisses": 6150,
      "Ġarguing": 6151,
      "Annie": 6152,
      "Ġregretted": 6153,
      "Alex": 6154,
      "cers": 6155,
      "reat": 6156,
      "ayla": 6157,
      "ĠFor": 6158,
      "ĠClaire": 6159,
      "Ġremoved": 6160,
      "ÅĵMommy": 6161,
      "Ġwrist": 6162,
      "Ġfoods": 6163,
      "Ġtractor": 6164,
      "Ġrainco": 6165,
      "Ġsticking": 6166,
      "Ġusually": 6167,
      "Ġprints": 6168,
      "Ġdrives": 6169,
      "ĠwasnÃ¢": 6170,
      "Ġpolished": 6171,
      "angled": 6172,
      "Ġpatience": 6173,
      "Ġrelief": 6174,
      "Ġrockets": 6175,
      "Ġtickle": 6176,
      "Ġcovers": 6177,
      "Ġsandcastles": 6178,
      "Ġactivities": 6179,
      "Ġfarther": 6180,
      "Ġraincoat": 6181,
      "Fr": 6182,
      "Mrs": 6183,
      "boo": 6184,
      "cope": 6185,
      "iles": 6186,
      "Ġrumble": 6187,
      "Ġstern": 6188,
      "Ġshined": 6189,
      "Ġcans": 6190,
      "ĠJamie": 6191,
      "Ġroots": 6192,
      "ĠPipp": 6193,
      "Ġexplorers": 6194,
      "Ġstolen": 6195,
      "Ġusual": 6196,
      "ĠNick": 6197,
      "Ġopening": 6198,
      "Afterwards": 6199,
      "Ġgrowling": 6200,
      "hog": 6201,
      "Ġchewing": 6202,
      "Ġflags": 6203,
      "Ġpeeking": 6204,
      "Grandpa": 6205,
      "Ġstrike": 6206,
      "Ġobserved": 6207,
      "ĠChrist": 6208,
      "ĠRabbit": 6209,
      "melia": 6210,
      "lings": 6211,
      "you": 6212,
      "int": 6213,
      "Ġcent": 6214,
      "Ġpout": 6215,
      "ĠSadly": 6216,
      "ords": 6217,
      "ĠLarry": 6218,
      "usted": 6219,
      "ÅĵOh": 6220,
      "Ġsmiley": 6221,
      "Ġuses": 6222,
      "Ġyells": 6223,
      "Ġpartic": 6224,
      "Ġthreat": 6225,
      "Ġcoloured": 6226,
      "Ġglasses": 6227,
      "Ġtraveled": 6228,
      "Yeah": 6229,
      "Millie": 6230,
      "Sandy": 6231,
      "Ġbumpy": 6232,
      "Ġrisk": 6233,
      "Ġyouth": 6234,
      "Ġspike": 6235,
      "opes": 6236,
      "Ġfault": 6237,
      "Ġchips": 6238,
      "Ġfoc": 6239,
      "Ġsnat": 6240,
      "Ġrocking": 6241,
      "Ġruler": 6242,
      "Ġgrowl": 6243,
      "Ġcelebration": 6244,
      "Ġherbs": 6245,
      "abel": 6246,
      "Ġfirefighters": 6247,
      "ĠMatt": 6248,
      "mas": 6249,
      "per": 6250,
      "rious": 6251,
      "indr": 6252,
      "Ġchuck": 6253,
      "asm": 6254,
      "ĠCarl": 6255,
      "Ġraindr": 6256,
      "ÅĵWhy": 6257,
      "Ġstaying": 6258,
      "oys": 6259,
      "Ġowners": 6260,
      "Ġteaches": 6261,
      "Ġdesert": 6262,
      "Ġvalued": 6263,
      "Ġtickled": 6264,
      "Ġsilent": 6265,
      "Ġfreed": 6266,
      "Ġseems": 6267,
      "Ġsquares": 6268,
      "Ġrubs": 6269,
      "Ġhedgehog": 6270,
      "Ġimproved": 6271,
      "ĠRover": 6272,
      "Ġseashell": 6273,
      "Ġsquealed": 6274,
      "Ġcrumbs": 6275,
      "Ġvictory": 6276,
      "jo": 6277,
      "Ġdipped": 6278,
      "oni": 6279,
      "Ġsobbed": 6280,
      "ĠChe": 6281,
      "ĠPl": 6282,
      "ĠPinky": 6283,
      "Ġlistens": 6284,
      "ĠThomas": 6285,
      "Ġrule": 6286,
      "Ġyesterday": 6287,
      "Ġcreamy": 6288,
      "Ġpatted": 6289,
      "Ġfuzzy": 6290,
      "Ġtemper": 6291,
      "Ġparticular": 6292,
      "Sophie": 6293,
      "Ġtodd": 6294,
      "Ġfirm": 6295,
      "Ġden": 6296,
      "aty": 6297,
      "Ġbead": 6298,
      "Ġexha": 6299,
      "ĠWater": 6300,
      "Ġlap": 6301,
      "ĠLuckily": 6302,
      "ĠLinda": 6303,
      "ĠLulu": 6304,
      "bbly": 6305,
      "Ġpeppers": 6306,
      "Ġcoloring": 6307,
      "ĠGreen": 6308,
      "Ġcaused": 6309,
      "ĠLeave": 6310,
      "Ġadding": 6311,
      "Ġwandering": 6312,
      "Ġwiggled": 6313,
      "Ġfamilies": 6314,
      "ĠChristmas": 6315,
      "Bobby": 6316,
      "Cl": 6317,
      "Polly": 6318,
      "oh": 6319,
      "hello": 6320,
      "Ġcash": 6321,
      "iding": 6322,
      "ences": 6323,
      "opsy": 6324,
      "ĠGigi": 6325,
      "Ġworkers": 6326,
      "ĠEmmy": 6327,
      "Ġwinked": 6328,
      "Ġsafer": 6329,
      "Ġreveal": 6330,
      "Ġtwinkle": 6331,
      "Ġgaze": 6332,
      "Ġopinion": 6333,
      "Ġsituation": 6334,
      "Ġraindrops": 6335,
      "pite": 6336,
      "Ġast": 6337,
      "Ġcous": 6338,
      "Ġdared": 6339,
      "Ġpause": 6340,
      "isies": 6341,
      "esome": 6342,
      "Ġech": 6343,
      "ĠBoth": 6344,
      "ĠMany": 6345,
      "Ġnect": 6346,
      "ĠcanÃ¢": 6347,
      "Ġfaced": 6348,
      "Ġchoo": 6349,
      "Ġneedles": 6350,
      "itches": 6351,
      "Ġresting": 6352,
      "Ġarrive": 6353,
      "Ġagrees": 6354,
      "Ġpacking": 6355,
      "Ġactions": 6356,
      "ĠOwl": 6357,
      "Bobo": 6358,
      "Grace": 6359,
      "Ġunpacked": 6360,
      "ĠJessica": 6361,
      "Ġdaisies": 6362,
      "Ġexhausted": 6363,
      "Ġnectar": 6364,
      "Fine": 6365,
      "Uh": 6366,
      "band": 6367,
      "fl": 6368,
      "Ġtim": 6369,
      "Ġaff": 6370,
      "Ġlined": 6371,
      "Ġcough": 6372,
      "Ġwasted": 6373,
      "ley": 6374,
      "ĠyouÃ¢": 6375,
      "Ġgoals": 6376,
      "urry": 6377,
      "Ġmane": 6378,
      "Ġswooped": 6379,
      "ĠFriend": 6380,
      "Ġdeli": 6381,
      "ĠNan": 6382,
      "oline": 6383,
      "Ġbowls": 6384,
      "Ġinviting": 6385,
      "Ġpleasure": 6386,
      "Ġnetwork": 6387,
      "Ġawesome": 6388,
      "Ġjackets": 6389,
      "Ġdelivered": 6390,
      "Ġscrubbed": 6391,
      "Ġtemperature": 6392,
      "Days": 6393,
      "Rose": 6394,
      "njoy": 6395,
      "Ġcause": 6396,
      "immer": 6397,
      "Ġliqu": 6398,
      "Ġrobb": 6399,
      "ongo": 6400,
      "ĠSpark": 6401,
      "Ġbehavi": 6402,
      "Ġreads": 6403,
      "Ġdarkness": 6404,
      "Ġfairies": 6405,
      "Ġmarked": 6406,
      "Ġsmarter": 6407,
      "Ġwarri": 6408,
      "Ġspeaking": 6409,
      "Ġblooming": 6410,
      "Ġcopy": 6411,
      "Ġhallway": 6412,
      "Ġgroceries": 6413,
      "Ġliquid": 6414,
      "udy": 6415,
      "Ġwow": 6416,
      "eds": 6417,
      "Ġhi": 6418,
      "Ġpiggy": 6419,
      "ĠSus": 6420,
      "ĠHappy": 6421,
      "Ġsoaked": 6422,
      "Ġwears": 6423,
      "Ġscales": 6424,
      "Ġfever": 6425,
      "ĠLuke": 6426,
      "Ġknees": 6427,
      "Ġimportance": 6428,
      "uggles": 6429,
      "Ġprincesses": 6430,
      "Ġreply": 6431,
      "Ġblows": 6432,
      "ĠSnuggles": 6433,
      "Ġwires": 6434,
      "Ġachieved": 6435,
      "ĠFollow": 6436,
      "Ġcalmed": 6437,
      "Ġdrifted": 6438,
      "Ġcautiously": 6439,
      "Ġsnatched": 6440,
      "Maggie": 6441,
      "Ġty": 6442,
      "Ġstem": 6443,
      "Ġseven": 6444,
      "ĠJones": 6445,
      "Ġsomebody": 6446,
      "ĠEls": 6447,
      "Ġyourselves": 6448,
      "ĠwouldnÃ¢": 6449,
      "Ġcowb": 6450,
      "izzie": 6451,
      "Ġleading": 6452,
      "Ġribbons": 6453,
      "Ġrecommended": 6454,
      "Ġinterested": 6455,
      "Ġchuckled": 6456,
      "Ġbeads": 6457,
      "Ġdelivery": 6458,
      "ossible": 6459,
      "Ġsense": 6460,
      "Ġbars": 6461,
      "Ġglee": 6462,
      "Ġspong": 6463,
      "ĠJay": 6464,
      "Ġswirl": 6465,
      "Ġtwin": 6466,
      "emma": 6467,
      "Ġimpossible": 6468,
      "boat": 6469,
      "Ġpots": 6470,
      "ĠOw": 6471,
      "Ġmasks": 6472,
      "ÅĵWhatÃ¢": 6473,
      "Ġfluttered": 6474,
      "Ġbakery": 6475,
      "Ġsnowballs": 6476,
      "Ġdentist": 6477,
      "mies": 6478,
      "Ġmes": 6479,
      "ĠTess": 6480,
      "igning": 6481,
      "Ġrip": 6482,
      "Ġkites": 6483,
      "Ġlosing": 6484,
      "Ġremote": 6485,
      "Ġbadge": 6486,
      "Ġdreamt": 6487,
      "Ġnaps": 6488,
      "Ġnapkins": 6489,
      "Ġorganizing": 6490,
      "Ġwipes": 6491,
      "ĠZoom": 6492,
      "Ġknights": 6493,
      "Ġhelmets": 6494,
      "Ġtempt": 6495,
      "Ġstroll": 6496,
      "Ġstroked": 6497,
      "Ġpaddled": 6498,
      "Ġforgiven": 6499,
      "Ġmesmer": 6500,
      "Harry": 6501,
      "ik": 6502,
      "Ġlimes": 6503,
      "ĠAbbie": 6504,
      "ĠElly": 6505,
      "usband": 6506,
      "Ġlearns": 6507,
      "Ġjoking": 6508,
      "Ġcloses": 6509,
      "Ġfroze": 6510,
      "ĠJohnson": 6511,
      "Ġpointy": 6512,
      "Ġsecure": 6513,
      "ĠBeing": 6514,
      "Ġawake": 6515,
      "Ġpedals": 6516,
      "Ġbaker": 6517,
      "Ġannoy": 6518,
      "Unfortunately": 6519,
      "Ġcashier": 6520,
      "mallow": 6521,
      "Ġopp": 6522,
      "arling": 6523,
      "Ġbelly": 6524,
      "Ġcolored": 6525,
      "Ġhider": 6526,
      "Ġprotecting": 6527,
      "Ġpassen": 6528,
      "Ġsplashes": 6529,
      "Ġdetermination": 6530,
      "Ġseeker": 6531,
      "Ġfilling": 6532,
      "Ġradishes": 6533,
      "arshmallow": 6534,
      "Ġstomped": 6535,
      "ĠSuzie": 6536,
      "Tweety": 6537,
      "Ab": 6538,
      "ĠY": 6539,
      "ĠSorry": 6540,
      "Ġinsp": 6541,
      "ades": 6542,
      "ĠAmelia": 6543,
      "Ġnoses": 6544,
      "ĠMomo": 6545,
      "ĠPut": 6546,
      "Ġdeal": 6547,
      "Ġstorekeeper": 6548,
      "ĠDoggy": 6549,
      "Ġtallest": 6550,
      "Ġmuscle": 6551,
      "Ġtails": 6552,
      "Ġsigned": 6553,
      "Ġscaring": 6554,
      "Ġscarves": 6555,
      "Ġcandies": 6556,
      "Ġleaning": 6557,
      "Ġgiraff": 6558,
      "Ġobjects": 6559,
      "Ġsneaky": 6560,
      "Ġaccomplish": 6561,
      "Ġtipt": 6562,
      "Ġwarrior": 6563,
      "Ġsponge": 6564,
      "va": 6565,
      "Ġtig": 6566,
      "Ġaud": 6567,
      "Ġsib": 6568,
      "Ġhusband": 6569,
      "ouch": 6570,
      "iled": 6571,
      "endy": 6572,
      "Ġrising": 6573,
      "alph": 6574,
      "ĠJacob": 6575,
      "?\",": 6576,
      "Ġbacked": 6577,
      "Ġleap": 6578,
      "Ġmeals": 6579,
      "ĠWatch": 6580,
      "Ġeverybody": 6581,
      "ishy": 6582,
      "Ġcreations": 6583,
      "Ġunf": 6584,
      "ĠGet": 6585,
      "Ġafterwards": 6586,
      "Ġhealth": 6587,
      "brush": 6588,
      "Ġmiles": 6589,
      "Ġzookeeper": 6590,
      "Ġrecording": 6591,
      "Ġarrows": 6592,
      "Ġartist": 6593,
      "Ġcheeks": 6594,
      "Charlie": 6595,
      "Ġsnuggle": 6596,
      "Ġgiraffes": 6597,
      "Ġtigers": 6598,
      "For": 6599,
      "tuce": 6600,
      "vest": 6601,
      "ans": 6602,
      "ĠBongo": 6603,
      "itted": 6604,
      "ĠMira": 6605,
      "Ġaren": 6606,
      "icky": 6607,
      "Ġflapping": 6608,
      "Ġchip": 6609,
      "Ġlettuce": 6610,
      "Ġdancers": 6611,
      "Ġconn": 6612,
      "Ġconcer": 6613,
      "ĠPam": 6614,
      "ths": 6615,
      "Ġarr": 6616,
      "Ġsteer": 6617,
      "Ġparties": 6618,
      "Ġhides": 6619,
      "Ġmarks": 6620,
      "Ġdiving": 6621,
      "Ġsalty": 6622,
      "Ġweekend": 6623,
      "Ġgracefully": 6624,
      "Ġavoid": 6625,
      "Ġhesitated": 6626,
      "ĠGoodbye": 6627,
      "Ġtravelled": 6628,
      "ĠJeff": 6629,
      "Fin": 6630,
      "Ġcust": 6631,
      "Ġdots": 6632,
      "ilo": 6633,
      "ann": 6634,
      "Ġthird": 6635,
      "Ġyum": 6636,
      "Ġfeast": 6637,
      "ĠLou": 6638,
      "aura": 6639,
      "Ġslices": 6640,
      "Ġsnuck": 6641,
      "ĠCra": 6642,
      "Ġracc": 6643,
      "ĠPrin": 6644,
      "Ġhandsome": 6645,
      "Ġdef": 6646,
      "Ġtricked": 6647,
      "Ġsailboat": 6648,
      "ĠFlopsy": 6649,
      "Ġpotion": 6650,
      "ments": 6651,
      "Ġburst": 6652,
      "Ġdiscussed": 6653,
      "Ġhesitant": 6654,
      "ĠNothing": 6655,
      "Ġrusty": 6656,
      "Ġtalented": 6657,
      "Ġtoddler": 6658,
      "Ġafford": 6659,
      "Ġcustom": 6660,
      "Ġraccoon": 6661,
      "aa": 6662,
      "ners": 6663,
      "uzzy": 6664,
      "Ġtangled": 6665,
      "Ġhissed": 6666,
      "ĠMa": 6667,
      "icked": 6668,
      "ĠFar": 6669,
      "Ġslam": 6670,
      "Ġdrawn": 6671,
      "Ġcorners": 6672,
      "Ġspoonful": 6673,
      "Ġpans": 6674,
      "Ġrequested": 6675,
      "ĠBetty": 6676,
      "Ġdirect": 6677,
      "Ġlungs": 6678,
      "Ġsiblings": 6679,
      "An": 6680,
      "Katie": 6681,
      "zes": 6682,
      "Ġcott": 6683,
      "Ġdie": 6684,
      "ids": 6685,
      "llen": 6686,
      "Ġneither": 6687,
      "Ġbackwards": 6688,
      "ept": 6689,
      "Ġflight": 6690,
      "ĠEarth": 6691,
      "Ġswept": 6692,
      "Ġhandful": 6693,
      "ĠRobby": 6694,
      "Ġprinting": 6695,
      "Ġpretends": 6696,
      "Ġdarker": 6697,
      "Ġsnowmen": 6698,
      "Ġmixture": 6699,
      "Ġembarrass": 6700,
      "Ġfolding": 6701,
      "Ġpumpkins": 6702,
      "Ġlogs": 6703,
      "Ġwraps": 6704,
      "ivity": 6705,
      "Ġsausages": 6706,
      "Ġfluttering": 6707,
      "Maria": 6708,
      "Ġtiptoed": 6709,
      "Boo": 6710,
      "ded": 6711,
      "eal": 6712,
      "pit": 6713,
      "Ġlower": 6714,
      "ility": 6715,
      "Ġrus": 6716,
      "ickey": 6717,
      "Ġchop": 6718,
      "ĠEnjoy": 6719,
      "Ġgrandp": 6720,
      "Ġgrabbing": 6721,
      "ĠJacky": 6722,
      "Ġadult": 6723,
      "Those": 6724,
      "ĠPo": 6725,
      "Ġdrawers": 6726,
      "ĠKayla": 6727,
      "Ġgasp": 6728,
      "ĠZoomy": 6729,
      "Meow": 6730,
      "ĠBuzzy": 6731,
      "Ġsuperheroes": 6732,
      "Ġinsects": 6733,
      "Ġwidened": 6734,
      "ĠPippin": 6735,
      "Ġcousin": 6736,
      "Ġaudience": 6737,
      "Great": 6738,
      "Ru": 6739,
      "come": 6740,
      "Ġwins": 6741,
      "Ġocc": 6742,
      "Ġbeam": 6743,
      "ĠBinky": 6744,
      "ĠAunt": 6745,
      "Ġfears": 6746,
      "Ġworn": 6747,
      "Ġcond": 6748,
      "Ġwilling": 6749,
      "aker": 6750,
      "Ġwindy": 6751,
      "Ġgrassy": 6752,
      "Ġrivers": 6753,
      "umbling": 6754,
      "Ġstarfish": 6755,
      "Ġclowns": 6756,
      "Ġrefle": 6757,
      "Ġbasement": 6758,
      "Ġexperien": 6759,
      "Ġfamiliar": 6760,
      "Ġflavor": 6761,
      "Ġchefs": 6762,
      "Ġperforman": 6763,
      "Ġbeginning": 6764,
      "Ew": 6765,
      "abby": 6766,
      "cited": 6767,
      "no": 6768,
      "Ġgross": 6769,
      "ĠSophia": 6770,
      "sequ": 6771,
      "Ġrefu": 6772,
      "ĠMon": 6773,
      "ĠJazz": 6774,
      "iece": 6775,
      "Ġdads": 6776,
      "Ġbully": 6777,
      "Ġconsequ": 6778,
      "Ġuns": 6779,
      "Ġsnowfl": 6780,
      "Ġcreativity": 6781,
      "Ġforgetting": 6782,
      "Ġwrapping": 6783,
      "Ġcelebrating": 6784,
      "Toby": 6785,
      "Ġpaying": 6786,
      "Ġknocks": 6787,
      "Ġcomplained": 6788,
      "ĠRobert": 6789,
      "Ġsprinkled": 6790,
      "Ġfirefighter": 6791,
      "Roar": 6792,
      "ĠOlive": 6793,
      "Ġheavier": 6794,
      "Ġpouted": 6795,
      "ĠPrincess": 6796,
      "Ġgrandpare": 6797,
      "Run": 6798,
      "Whee": 6799,
      "Ġmerry": 6800,
      "ĠHoot": 6801,
      "Ġropes": 6802,
      "ados": 6803,
      "Ġwept": 6804,
      "Ġreass": 6805,
      "ĠMel": 6806,
      "Ġbodies": 6807,
      "ĠJune": 6808,
      "using": 6809,
      "ĠJojo": 6810,
      "Ġstays": 6811,
      "obody": 6812,
      "retty": 6813,
      "Ġkicks": 6814,
      "Ġshrinking": 6815,
      "Ġrecipe": 6816,
      "Ġsource": 6817,
      "Ġindeed": 6818,
      "Ġforks": 6819,
      "Ġscratches": 6820,
      "Ġavocados": 6821,
      "Ġseparated": 6822,
      "Ġprovided": 6823,
      "Ġsurroundings": 6824,
      "Shh": 6825,
      "ĠFox": 6826,
      "Ġpuppies": 6827,
      "Bad": 6828,
      "Danny": 6829,
      "Ellie": 6830,
      "Kate": 6831,
      "tle": 6832,
      "Ġwadd": 6833,
      "ĠHannah": 6834,
      "Ġrings": 6835,
      "Ġspikes": 6836,
      "ĠLizzie": 6837,
      "aula": 6838,
      "ĠEverybody": 6839,
      "iley": 6840,
      "Ġdollhouse": 6841,
      "Ġcrew": 6842,
      "ĠGary": 6843,
      "Ġbeloved": 6844,
      "ĠKeep": 6845,
      "Ġattack": 6846,
      "ĠWithout": 6847,
      "ĠBluey": 6848,
      "Ġtricky": 6849,
      "Ġseconds": 6850,
      "Ġhumans": 6851,
      "Ġpresses": 6852,
      "Ġincluding": 6853,
      "Ġgranted": 6854,
      "ĠFriends": 6855,
      "Ġconsequences": 6856,
      "?'": 6857,
      "Bl": 6858,
      "Milly": 6859,
      "Nemo": 6860,
      "cake": 6861,
      "fall": 6862,
      "wk": 6863,
      "Ġhour": 6864,
      "Ġdarling": 6865,
      "Ġmaster": 6866,
      "Ġnine": 6867,
      "Ġhawk": 6868,
      "Ġstool": 6869,
      "Ġplucked": 6870,
      "Ġgobbled": 6871,
      "ĠAbby": 6872,
      "Ġglued": 6873,
      "Ġdresser": 6874,
      "ĠNina": 6875,
      "athan": 6876,
      "Ġmagician": 6877,
      "Ġtalks": 6878,
      "Ġplans": 6879,
      "Ġneighbours": 6880,
      "Ġhoriz": 6881,
      "Ġwishing": 6882,
      "Ġedges": 6883,
      "Ġtunnels": 6884,
      "Ġgems": 6885,
      "Ġdelivering": 6886,
      "Ġneatly": 6887,
      "Ġinstrum": 6888,
      "Ġbehaved": 6889,
      "ĠGranny": 6890,
      "Ġdeserve": 6891,
      "Ġtimer": 6892,
      "Fo": 6893,
      "Wh": 6894,
      "urious": 6895,
      "Ġtouc": 6896,
      "ĠSpl": 6897,
      "ĠBessie": 6898,
      "Ġteased": 6899,
      "Ġamong": 6900,
      "Ġruining": 6901,
      "ĠJaney": 6902,
      "Ġscrews": 6903,
      "Ġsailors": 6904,
      "Ġplanning": 6905,
      "ĠStay": 6906,
      "Ġcrossing": 6907,
      "Ġlollipops": 6908,
      "Ġsymbols": 6909,
      "Ġbuzzed": 6910,
      "Ġwarnings": 6911,
      "Ġswimsuit": 6912,
      "Ġmaterials": 6913,
      "ĠSusan": 6914,
      "Ġaccomplishment": 6915,
      "Ġrushing": 6916,
      "Ġperformance": 6917,
      "Ġhorizon": 6918,
      "Nina": 6919,
      "Some": 6920,
      "Tw": 6921,
      "rig": 6922,
      "the": 6923,
      "Ġhitting": 6924,
      "Ġmarshmallow": 6925,
      "Ġpens": 6926,
      "Ġonward": 6927,
      "choo": 6928,
      "Ġspices": 6929,
      "Ġhelpers": 6930,
      "Ġfact": 6931,
      "Ġage": 6932,
      "ĠLi": 6933,
      "ĠListen": 6934,
      "Ġflas": 6935,
      "ÅĵDo": 6936,
      "Ġremembering": 6937,
      "Ġamount": 6938,
      "Ġblocking": 6939,
      "ĠOur": 6940,
      "Ġpaths": 6941,
      "Ġdrums": 6942,
      "ĠZara": 6943,
      "Ġdesigns": 6944,
      "Ġmushrooms": 6945,
      "ronaut": 6946,
      "Ġcobwebs": 6947,
      "Ġastronaut": 6948,
      "Ġechoed": 6949,
      "Ġdirections": 6950,
      "Ġtouches": 6951,
      "Dan": 6952,
      "Even": 6953,
      "Ġmer": 6954,
      "atur": 6955,
      "Ġsan": 6956,
      "Ġstung": 6957,
      "Ġonions": 6958,
      "Ġplayers": 6959,
      "step": 6960,
      "Ġleast": 6961,
      "Ġbru": 6962,
      "Ġteles": 6963,
      "Ġraces": 6964,
      "Ġstrongest": 6965,
      "ĠRemember": 6966,
      "Ġchoices": 6967,
      "Ġbaskets": 6968,
      "Ġforgets": 6969,
      "Ġpeacefully": 6970,
      "Ġmatters": 6971,
      "Ġtested": 6972,
      "Ġresisted": 6973,
      "ĠRobbie": 6974,
      "ÅĵYouÃ¢": 6975,
      "ably": 6976,
      "Ġwiggle": 6977,
      "Ġdamage": 6978,
      "Ġscraped": 6979,
      "Ruby": 6980,
      "Ġmarshmallows": 6981,
      "Ġtelescope": 6982,
      "Pe": 6983,
      "Time": 6984,
      "Tina": 6985,
      "fire": 6986,
      "tier": 6987,
      "ĠQ": 6988,
      "Ġcor": 6989,
      "ĠSqu": 6990,
      "ĠSque": 6991,
      "rip": 6992,
      "Ġyounger": 6993,
      "ntil": 6994,
      "ĠWell": 6995,
      "ĠEl": 6996,
      "Ġvines": 6997,
      "Ġprettier": 6998,
      "ÅĵWow": 6999,
      "ÅĵMy": 7000,
      "Ġconvers": 7001,
      "Ġgrowls": 7002,
      "Ġbaths": 7003,
      "Ġimagining": 7004,
      "Ġhonked": 7005,
      "Ġgenie": 7006,
      "Ġpoems": 7007,
      "Ġminerals": 7008,
      "Ġrustling": 7009,
      "ĠTwo": 7010,
      "Ġgreeted": 7011,
      "Ġpassengers": 7012,
      "Ġoccas": 7013,
      "Ġsank": 7014,
      "During": 7015,
      "Kim": 7016,
      "dges": 7017,
      "iel": 7018,
      "now": 7019,
      "Ġtuck": 7020,
      "ition": 7021,
      "Ġmast": 7022,
      "Ġmunch": 7023,
      "aying": 7024,
      "Ġstitches": 7025,
      "Ġneare": 7026,
      "ĠJudy": 7027,
      "Ġscient": 7028,
      "Ġadults": 7029,
      "Ġache": 7030,
      "Ġnearly": 7031,
      "Ġcuriously": 7032,
      "Ġrespond": 7033,
      "Ġimages": 7034,
      "ĠStitch": 7035,
      "Ġfeeding": 7036,
      "Ġvanilla": 7037,
      "Ġpraying": 7038,
      "Ġborrowed": 7039,
      "artha": 7040,
      "Ġcushions": 7041,
      "manda": 7042,
      "Ġcomplaining": 7043,
      "Ġincreased": 7044,
      "ĠFrog": 7045,
      "Ġbehaving": 7046,
      "Ġcommun": 7047,
      "immering": 7048,
      "Ġbehavior": 7049,
      "Ġmesmerized": 7050,
      "ĠFarmer": 7051,
      "Ġunsure": 7052,
      "Ġscientist": 7053,
      "By": 7054,
      "Ducky": 7055,
      "May": 7056,
      "Mad": 7057,
      "aired": 7058,
      "ky": 7059,
      "lves": 7060,
      "Ġcoral": 7061,
      "ĠTara": 7062,
      "Ġsale": 7063,
      "Ġplaytime": 7064,
      "Ġnotes": 7065,
      "allowed": 7066,
      "ĠWendy": 7067,
      "ĠLena": 7068,
      "Ġswallowed": 7069,
      "ueen": 7070,
      "Ġtramp": 7071,
      "Ġtwice": 7072,
      "Ġwobbly": 7073,
      "Ġdances": 7074,
      "Ġzipping": 7075,
      "ĠAsh": 7076,
      "Ġjoyful": 7077,
      "Ġstands": 7078,
      "Ġdrivers": 7079,
      "Ġhopeful": 7080,
      "Ġrepaired": 7081,
      "Ġsunflowers": 7082,
      "Ġenthusi": 7083,
      "Ġrewarded": 7084,
      "Ġcenter": 7085,
      "rigued": 7086,
      "Ġtrampoline": 7087,
      "Have": 7088,
      "Our": 7089,
      "Oops": 7090,
      "Ġcoup": 7091,
      "Ġpours": 7092,
      "Ġoh": 7093,
      "Ġnibb": 7094,
      "ĠSc": 7095,
      "Ġnoon": 7096,
      "Ġscen": 7097,
      "Ġcoc": 7098,
      "Ġflown": 7099,
      "ĠEx": 7100,
      "Ġswords": 7101,
      "Ġtreehouse": 7102,
      "Ġtrot": 7103,
      "Ġbraver": 7104,
      "Ġwobble": 7105,
      "Ġwobbled": 7106,
      "ÅĵHi": 7107,
      "ÅĵWell": 7108,
      "Ġdropping": 7109,
      "Ġhearing": 7110,
      "attered": 7111,
      "Ġhealing": 7112,
      "Ġaction": 7113,
      "Ġspreading": 7114,
      "ĠMikey": 7115,
      "ĠFroggy": 7116,
      "ĠBirthday": 7117,
      "Ġgeese": 7118,
      "Ġarranged": 7119,
      "Ġenthusiasm": 7120,
      "Ġcouple": 7121,
      "dri": 7122,
      "ippy": 7123,
      "weed": 7124,
      "yes": 7125,
      "initely": 7126,
      "itched": 7127,
      "itude": 7128,
      "Ġdet": 7129,
      "atul": 7130,
      "Ġnood": 7131,
      "Ġease": 7132,
      "ĠMouse": 7133,
      "ĠMilo": 7134,
      "ĠMickey": 7135,
      "idey": 7136,
      "Ġjugg": 7137,
      "Ġspins": 7138,
      "Ġblast": 7139,
      "ĠFuzzy": 7140,
      "Ġpecked": 7141,
      "Ġslips": 7142,
      "iona": 7143,
      "Ġfinal": 7144,
      "Ġfinishing": 7145,
      "ĠPr": 7146,
      "acy": 7147,
      "Ġwarmer": 7148,
      "Ġsandpit": 7149,
      "Ġlighter": 7150,
      "Ġslower": 7151,
      "Ġelf": 7152,
      "anging": 7153,
      "Ġprove": 7154,
      "Ġbeeh": 7155,
      "ĠThanks": 7156,
      "Ġwiping": 7157,
      "Ġheroes": 7158,
      "Ġencourag": 7159,
      "Ġtriangles": 7160,
      "Ġrefreshing": 7161,
      "Ġtravelling": 7162,
      "Ġguests": 7163,
      "Ġ10": 7164,
      "ĠQuack": 7165,
      "ĠQueen": 7166,
      "--": 7167,
      "Like": 7168,
      "bell": 7169,
      "bird": 7170,
      "Ġ2": 7171,
      "Ġaimed": 7172,
      "Ġsadd": 7173,
      "ĠSmo": 7174,
      "imon": 7175,
      "Ġthorn": 7176,
      "ĠHolly": 7177,
      "veral": 7178,
      "Ġplain": 7179,
      "adie": 7180,
      "Ġreason": 7181,
      "ĠMabel": 7182,
      "Ġseveral": 7183,
      "ĠLaura": 7184,
      "Ġflips": 7185,
      "Ġposs": 7186,
      "Ġexplo": 7187,
      "Ġoffic": 7188,
      "ÅĵMom": 7189,
      "ÅĵCome": 7190,
      "ÅĵNow": 7191,
      "Ġthrown": 7192,
      "Ġdefe": 7193,
      "ĠNobody": 7194,
      "Ġsteady": 7195,
      "Ġpennies": 7196,
      "Ġseaweed": 7197,
      "Ġlifting": 7198,
      "Ġacting": 7199,
      "Ġshirts": 7200,
      "ertain": 7201,
      "ĠAlthough": 7202,
      "Ġantic": 7203,
      "Ġexamining": 7204,
      "Ġseller": 7205,
      "Ġawo": 7206,
      "ĠUnder": 7207,
      "Ġcampfire": 7208,
      "Ġoysters": 7209,
      "Ġbreathed": 7210,
      "Ġvideos": 7211,
      "Ġfirefly": 7212,
      "Ġyielded": 7213,
      "Ġfocused": 7214,
      "ĠElsa": 7215,
      "Ġdefinitely": 7216,
      "Follow": 7217,
      "Br": 7218,
      "Lilly": 7219,
      "Pat": 7220,
      "Tr": 7221,
      "Yummy": 7222,
      "ears": 7223,
      "yond": 7224,
      "Ġsy": 7225,
      "Ġfaded": 7226,
      "ĠSun": 7227,
      "anes": 7228,
      "Ġbeyond": 7229,
      "Ġstain": 7230,
      "rie": 7231,
      "stick": 7232,
      "Ġscamp": 7233,
      "Ġchos": 7234,
      "Ġpeck": 7235,
      "Ġheading": 7236,
      "Ġsquishy": 7237,
      "ĠThose": 7238,
      "Ġbows": 7239,
      "Ġpolitely": 7240,
      "Ġvisitor": 7241,
      "Ġcupcakes": 7242,
      "Ġchopped": 7243,
      "Ġcausing": 7244,
      "Ġexpress": 7245,
      "Ġlifts": 7246,
      "Steve": 7247,
      "illiam": 7248,
      "Ġthud": 7249,
      "years": 7250,
      "Ġcuddly": 7251,
      "Ġproper": 7252,
      "Ġsports": 7253,
      "Ġfreedom": 7254,
      "Ġsnowflakes": 7255,
      "Ġnoodles": 7256,
      "Ġbeehive": 7257,
      "Ġchosen": 7258,
      "aven": 7259,
      "bro": 7260,
      "cher": 7261,
      "ratul": 7262,
      "while": 7263,
      "Ġdaring": 7264,
      "inger": 7265,
      "Ġsofter": 7266,
      "str": 7267,
      "unched": 7268,
      "ently": 7269,
      "Ġshown": 7270,
      "Ġroars": 7271,
      "ongratul": 7272,
      "Ġwhose": 7273,
      "ĠFire": 7274,
      "Ġtwenty": 7275,
      "ĠSpidey": 7276,
      "ĠRain": 7277,
      "Ġwarmly": 7278,
      "Ġthroughout": 7279,
      "ĠwonÃ¢": 7280,
      "Ġdived": 7281,
      "ĠAlong": 7282,
      "Ġnervously": 7283,
      "Ġtwisting": 7284,
      "Ġdiamonds": 7285,
      "Ġtoaster": 7286,
      "Ġsniffs": 7287,
      "Ġsneezing": 7288,
      "Ġsurfboard": 7289,
      "Ġstacked": 7290,
      "Ġinsisting": 7291,
      "ĠAbi": 7292,
      "Ġpupils": 7293,
      "Ġflavors": 7294,
      "Ġrobber": 7295,
      "Ġcowboy": 7296,
      "Ġslammed": 7297,
      "Car": 7298,
      "Miss": 7299,
      "Sadly": 7300,
      "Woof": 7301,
      "cl": 7302,
      "mered": 7303,
      "Ġaim": 7304,
      "ido": 7305,
      "onies": 7306,
      "Ġinj": 7307,
      "utter": 7308,
      "ĠBo": 7309,
      "ĠBoun": 7310,
      "ĠJax": 7311,
      "Ġcharge": 7312,
      "Ġintrigued": 7313,
      "Ġovercome": 7314,
      "Ġpuff": 7315,
      "Ġexplorer": 7316,
      "Ġstopping": 7317,
      "Ġwrink": 7318,
      "ĠGemma": 7319,
      "Ġtables": 7320,
      "ĠKaren": 7321,
      "otten": 7322,
      "Ġbelongings": 7323,
      "Ġmailed": 7324,
      "Ġdriveway": 7325,
      "Ġignoring": 7326,
      "Ġdecorating": 7327,
      "Ġwhispers": 7328,
      "Ġtwisty": 7329,
      "Ġstreamers": 7330,
      "Ġdesigned": 7331,
      "Ġgrandson": 7332,
      "Ġstatues": 7333,
      "Ġperforming": 7334,
      "Ġlending": 7335,
      "Ġtwinkled": 7336,
      "Ġloops": 7337,
      "Ġwhispering": 7338,
      "Ġsuffered": 7339,
      "Ġlicking": 7340,
      "Ġsewed": 7341,
      "ĠSparky": 7342,
      "iki": 7343,
      "Ġgrandparents": 7344,
      "Blue": 7345,
      "Ġawoke": 7346,
      "Jerry": 7347,
      "Su": 7348,
      "cter": 7349,
      "upt": 7350,
      "yan": 7351,
      "Ġfant": 7352,
      "Ġdot": 7353,
      "Ġmate": 7354,
      "Ġponies": 7355,
      "Ġrotten": 7356,
      "Ġplayroom": 7357,
      "Ġshoo": 7358,
      "Ġroses": 7359,
      "Ġcoach": 7360,
      "Ġcosy": 7361,
      "Ġprob": 7362,
      "Ġgoodies": 7363,
      "Ġsled": 7364,
      "Ġbeautifully": 7365,
      "Ġdollars": 7366,
      "Ġunw": 7367,
      "Ġforests": 7368,
      "ĠRavi": 7369,
      "Ġbelts": 7370,
      "uffin": 7371,
      "Ġunderstands": 7372,
      "meal": 7373,
      "Ġjoining": 7374,
      "Ġfits": 7375,
      "Ġcalmly": 7376,
      "Ġleads": 7377,
      "ĠZero": 7378,
      "Ġswans": 7379,
      "Ġoatmeal": 7380,
      "Ġsurrendered": 7381,
      "Ġquarreling": 7382,
      "Ġnovels": 7383,
      "Ġresults": 7384,
      "Ġpunishment": 7385,
      "Ġtrembled": 7386,
      "Ġwider": 7387,
      "Ġreflection": 7388,
      "ĠSquirrel": 7389,
      "ĠSqueaky": 7390,
      "Ġanticip": 7391,
      "Ġscampered": 7392,
      "Ġfantastic": 7393,
      "Ġprobably": 7394,
      "Adam": 7395,
      "Surpr": 7396,
      "ael": 7397,
      "eel": 7398,
      "rup": 7399,
      "sm": 7400,
      "sers": 7401,
      "whe": 7402,
      "Ġtiss": 7403,
      "Ġtying": 7404,
      "Ġgap": 7405,
      "Ġnapping": 7406,
      "anwhile": 7407,
      "iment": 7408,
      "onse": 7409,
      "rier": 7410,
      "ĠBee": 7411,
      "Ġmanag": 7412,
      "ĠWally": 7413,
      "Ġchara": 7414,
      "ĠDr": 7415,
      "Ġslither": 7416,
      "Ġwaterfall": 7417,
      "Ġfins": 7418,
      "Ġcraft": 7419,
      "Ġcolder": 7420,
      "ichael": 7421,
      "Ġfoxes": 7422,
      "Ġshops": 7423,
      "ounced": 7424,
      "Ġresponse": 7425,
      "Ġpicnics": 7426,
      "Ġappreciated": 7427,
      "Ġconfl": 7428,
      "ĠJulia": 7429,
      "ĠChris": 7430,
      "Ġperformed": 7431,
      "rrr": 7432,
      "ĠBirdy": 7433,
      "Frank": 7434,
      "Ġrisks": 7435,
      "Ġforgiveness": 7436,
      "Ġconnected": 7437,
      "Ġmerma": 7438,
      "broken": 7439,
      "Ġcharacter": 7440,
      "Baby": 7441,
      "Jul": 7442,
      "Listen": 7443,
      "Very": 7444,
      "crow": 7445,
      "mates": 7446,
      "Ġais": 7447,
      "its": 7448,
      "Ġcertain": 7449,
      "ilted": 7450,
      "Ġgest": 7451,
      "Ġni": 7452,
      "ĠSk": 7453,
      "ĠSw": 7454,
      "cky": 7455,
      "child": 7456,
      "ĠMartha": 7457,
      "Ġaside": 7458,
      "Ġscored": 7459,
      "ĠWin": 7460,
      "ĠLove": 7461,
      "Ġposter": 7462,
      "Ġposit": 7463,
      "Ġtweet": 7464,
      "Ġhanding": 7465,
      "Ġgardener": 7466,
      "Ġconvin": 7467,
      "Ġrainy": 7468,
      "ĠRalph": 7469,
      "Ġelbow": 7470,
      "Ġcloudy": 7471,
      "ĠStan": 7472,
      "Ġpostman": 7473,
      "Ġsniffing": 7474,
      "ĠUntil": 7475,
      "Ġgrandchild": 7476,
      "Ġappreciation": 7477,
      "Ġscrewdri": 7478,
      "Tweetie": 7479,
      "Ġspills": 7480,
      "Ġseashells": 7481,
      "Ġannoyed": 7482,
      "Abigail": 7483,
      "ĠCrabby": 7484,
      "Ġwaddled": 7485,
      "Ġencouraging": 7486,
      "Ġsyrup": 7487,
      "Ġanticipation": 7488,
      "Ġscrewdriver": 7489,
      "Back": 7490,
      "Tilly": 7491,
      "ae": 7492,
      "but": 7493,
      "found": 7494,
      "oss": 7495,
      "Ġtar": 7496,
      "Ġtipped": 7497,
      "Ġwag": 7498,
      "rey": 7499,
      "Ġlent": 7500,
      "ana": 7501,
      "onna": 7502,
      "espite": 7503,
      "ooking": 7504,
      "Ġramp": 7505,
      "Ġweeds": 7506,
      "Ġshady": 7507,
      "Ġkings": 7508,
      "Ġreun": 7509,
      "ĠMo": 7510,
      "Ġjars": 7511,
      "ĠAny": 7512,
      "Ġexcept": 7513,
      "ighting": 7514,
      "Ġnodd": 7515,
      "Ġchanging": 7516,
      "Ġwatering": 7517,
      "Ġsmallest": 7518,
      "Ġsnort": 7519,
      "Ġbravest": 7520,
      "Ġcheers": 7521,
      "ĠPandy": 7522,
      "Ġsweetest": 7523,
      "Ġworrying": 7524,
      "Ġsails": 7525,
      "Ġbelieving": 7526,
      "Ġheartbroken": 7527,
      "Ġlaying": 7528,
      "Ġpops": 7529,
      "Ġbells": 7530,
      "Ġnecklaces": 7531,
      "Ġsuggestion": 7532,
      "Ġpreparing": 7533,
      "Ġpedaled": 7534,
      "Ġreversed": 7535,
      "Ġstudents": 7536,
      "Ġincreasing": 7537,
      "Ġresponsib": 7538,
      "Quick": 7539,
      "Ġsuffering": 7540,
      "ĠSplash": 7541,
      "Ġconversation": 7542,
      "Ġofficers": 7543,
      "Bet": 7544,
      "Beth": 7545,
      "Karen": 7546,
      "Mine": 7547,
      "father": 7548,
      "munk": 7549,
      "ollen": 7550,
      "ĠX": 7551,
      "Ġties": 7552,
      "Ġtumbled": 7553,
      "Ġgonna": 7554,
      "ambled": 7555,
      "Ġstumble": 7556,
      "storm": 7557,
      "Ġreapp": 7558,
      "Ġswollen": 7559,
      "ÅĵOf": 7560,
      "Ġconqu": 7561,
      "Ġblocked": 7562,
      "Ġbiting": 7563,
      "Ġnests": 7564,
      "Ġrespected": 7565,
      "Ġangels": 7566,
      "Ġpepperoni": 7567,
      "Ġbatteries": 7568,
      "Ġpermitted": 7569,
      "Ġzebras": 7570,
      "Ġmeowing": 7571,
      "Ġpuppet": 7572,
      "Ġgears": 7573,
      "Ġconcert": 7574,
      "Ġreassured": 7575,
      "Ġtrotted": 7576,
      "Bill": 7577,
      "Bunny": 7578,
      "Each": 7579,
      "Jamie": 7580,
      "Rob": 7581,
      "cie": 7582,
      "wise": 7583,
      "Ġtoss": 7584,
      "Ġheight": 7585,
      "ĠTuna": 7586,
      "ĠSal": 7587,
      "order": 7588,
      "Ġund": 7589,
      "Ġrather": 7590,
      "Ġstall": 7591,
      "ĠthatÃ¢": 7592,
      "Ġev": 7593,
      "Ġearn": 7594,
      "ĠMart": 7595,
      "Ġsmashed": 7596,
      "Ġanger": 7597,
      "Ġspook": 7598,
      "Ġmemb": 7599,
      "Ġnewfound": 7600,
      "Ġblond": 7601,
      "Ġthoughts": 7602,
      "Ġtapped": 7603,
      "Ġskunk": 7604,
      "Ġquilt": 7605,
      "ection": 7606,
      "Whenever": 7607,
      "Ġwrigg": 7608,
      "Ġtoward": 7609,
      "athy": 7610,
      "Ġfires": 7611,
      "Ġdrown": 7612,
      "Ġcrashing": 7613,
      "Ġpromises": 7614,
      "Ġcounts": 7615,
      "ĠTodd": 7616,
      "Ġpaintbrush": 7617,
      "Ġplanting": 7618,
      "Ġvegg": 7619,
      "Ġstreets": 7620,
      "Ġpays": 7621,
      "Ġscrambled": 7622,
      "ĠZip": 7623,
      "Ġsoapy": 7624,
      "Ġsuits": 7625,
      "ĠDavey": 7626,
      "Ġdiscoveries": 7627,
      "Ġspeeding": 7628,
      "uctor": 7629,
      "Ġpassports": 7630,
      "Anne": 7631,
      "amboo": 7632,
      "Ġdelayed": 7633,
      "Ġwiggly": 7634,
      "Ġuniforms": 7635,
      "Ġefforts": 7636,
      "Ġdamaged": 7637,
      "Ġfirmly": 7638,
      "ĠLouise": 7639,
      "Ġmermaid": 7640,
      "Ġspooky": 7641,
      "Ġmembers": 7642,
      "?!\"": 7643,
      "Out": 7644,
      "Rachel": 7645,
      "ms": 7646,
      "oey": 7647,
      "prin": 7648,
      "sie": 7649,
      "vas": 7650,
      "Ġwoof": 7651,
      "Ġhoo": 7652,
      "Ġpound": 7653,
      "Ġnuzz": 7654,
      "ances": 7655,
      "orter": 7656,
      "ĠHope": 7657,
      "amma": 7658,
      "Ġbeating": 7659,
      "Ġsoot": 7660,
      "ading": 7661,
      "ĠMuffin": 7662,
      "ugs": 7663,
      "Ġsped": 7664,
      "fus": 7665,
      "ĠAmanda": 7666,
      "romise": 7667,
      "usty": 7668,
      "ĠFuzz": 7669,
      "ĠFiona": 7670,
      "ĠFido": 7671,
      "Ġcleared": 7672,
      "ÅĵOkay": 7673,
      "Ġdangers": 7674,
      "Ġcleaner": 7675,
      "ĠGina": 7676,
      "Ġrains": 7677,
      "Ġhops": 7678,
      "Ġmonths": 7679,
      "Ġtablet": 7680,
      "Ġjudges": 7681,
      "Ġshaped": 7682,
      "Ġmints": 7683,
      "Ġbandages": 7684,
      "Ġpanicked": 7685,
      "Ġtidied": 7686,
      "Ġclearly": 7687,
      "Ġfills": 7688,
      "Ġaddress": 7689,
      "Ġfishes": 7690,
      "Ġcovering": 7691,
      "Ġmagnif": 7692,
      "Ġfrowning": 7693,
      "ivia": 7694,
      "Ġcuddles": 7695,
      "Ġsurfing": 7696,
      "Ġmillion": 7697,
      "Ġexercises": 7698,
      "Ġbreathing": 7699,
      "Ġstroke": 7700,
      "Ġpurrs": 7701,
      "Ġdiscussing": 7702,
      "Ġbrushing": 7703,
      "ĠMaddy": 7704,
      "ĠQuick": 7705,
      "Ġoppos": 7706,
      "Ġinspired": 7707,
      "Ġconductor": 7708,
      "steps": 7709,
      "Ġtissue": 7710,
      "Ġtarget": 7711,
      "Ġveggies": 7712,
      "Penny": 7713,
      "water": 7714,
      "Ġdep": 7715,
      "ening": 7716,
      "Ġnur": 7717,
      "Ġrout": 7718,
      "Ġsoaking": 7719,
      "Ġkittens": 7720,
      "Ġseals": 7721,
      "Ġcanvas": 7722,
      "Ġalien": 7723,
      "Ġtreated": 7724,
      "Ġthanking": 7725,
      "ĠFighting": 7726,
      "Ġtrans": 7727,
      "Ġuntie": 7728,
      "ĠCle": 7729,
      "asty": 7730,
      "ÅĵHey": 7731,
      "Ġdoorway": 7732,
      "ĠPaula": 7733,
      "ĠRock": 7734,
      "Ġnights": 7735,
      "ĠThatÃ¢": 7736,
      "Ġsmelling": 7737,
      "ĠKelly": 7738,
      "Ġsparks": 7739,
      "Ġsprout": 7740,
      "Ġpackages": 7741,
      "Ġdesper": 7742,
      "ails": 7743,
      "Ġpuzzled": 7744,
      "Ġfootsteps": 7745,
      "Ġtoolbox": 7746,
      "ĠAli": 7747,
      "ĠAlison": 7748,
      "Ġreminding": 7749,
      "Ġtidying": 7750,
      "Ġwisely": 7751,
      "Ġsqueezing": 7752,
      "ĠUp": 7753,
      "Ġtravels": 7754,
      "Ġgrandfather": 7755,
      "Ġpigeons": 7756,
      "Ġloading": 7757,
      "Ġartwork": 7758,
      "Ġmagazines": 7759,
      "Ġdisplayed": 7760,
      "Ġprevented": 7761,
      "Chloe": 7762,
      "Ġsqueak": 7763,
      "Ġadmiration": 7764,
      "Ġglobe": 7765,
      "ĠMaya": 7766,
      "Ġmaterial": 7767,
      "Ġexperienced": 7768,
      "Ġrefuse": 7769,
      "Ġoccasion": 7770,
      "eeling": 7771,
      "Ġconvinced": 7772,
      "Ġreunited": 7773,
      "Hannah": 7774,
      "bage": 7775,
      "cent": 7776,
      "mi": 7777,
      "pen": 7778,
      "Ġsou": 7779,
      "rew": 7780,
      "Ġcoug": 7781,
      "Ġheaven": 7782,
      "Ġmoo": 7783,
      "ĠTake": 7784,
      "arrow": 7785,
      "Ġger": 7786,
      "Ġnasty": 7787,
      "Ġsav": 7788,
      "ĠSleep": 7789,
      "ended": 7790,
      "ighing": 7791,
      "Ġrays": 7792,
      "Ġmommies": 7793,
      "ĠMichael": 7794,
      "Ġank": 7795,
      "Ġspy": 7796,
      "lph": 7797,
      "aret": 7798,
      "Ġgoodby": 7799,
      "Ġchin": 7800,
      "Ġchilly": 7801,
      "Ġblinking": 7802,
      "inkle": 7803,
      "Ġfond": 7804,
      "ÅĵWhere": 7805,
      "ĠPu": 7806,
      "Ġdressing": 7807,
      "Ġduckling": 7808,
      "Ġswimmer": 7809,
      "ordinary": 7810,
      "Ġdistract": 7811,
      "Ġdespite": 7812,
      "Ġimaginary": 7813,
      "Ġhonking": 7814,
      "Ġshrunk": 7815,
      "Ġchocolates": 7816,
      "Ġbanged": 7817,
      "Ġpleaded": 7818,
      "Ġsolving": 7819,
      "Ġtrusting": 7820,
      "Ġgarbage": 7821,
      "Ġcrowns": 7822,
      "Ġcamel": 7823,
      "Ġguessing": 7824,
      "Ġextraordinary": 7825,
      "Ġsending": 7826,
      "...\"": 7827,
      "Ġrotting": 7828,
      "Ġvehicles": 7829,
      "Ġsqueaked": 7830,
      "Ġsewing": 7831,
      "Ġaccomplished": 7832,
      "Ġswayed": 7833,
      "Ġsternly": 7834,
      "Clara": 7835,
      "ĠTessa": 7836,
      "Two": 7837,
      "Ġmunching": 7838,
      "Ġevil": 7839,
      "Ġopposite": 7840,
      "Ġgoodbyes": 7841,
      "Claire": 7842,
      "Dear": 7843,
      "Take": 7844,
      "fia": 7845,
      "gain": 7846,
      "hind": 7847,
      "vant": 7848,
      "vroom": 7849,
      "hew": 7850,
      "Ġbamboo": 7851,
      "isions": 7852,
      "idence": 7853,
      "ori": 7854,
      "ĠHallow": 7855,
      "Ġrin": 7856,
      "ĠIm": 7857,
      "Ġwithin": 7858,
      "ĠBri": 7859,
      "ĠBaa": 7860,
      "Ġdod": 7861,
      "Ġdoves": 7862,
      "Ġwhoo": 7863,
      "ĠMaisy": 7864,
      "Ġloc": 7865,
      "Ġspat": 7866,
      "Ġexch": 7867,
      "Ġknots": 7868,
      "Ġmanners": 7869,
      "Ġlapt": 7870,
      "Ġlasers": 7871,
      "Ġflipped": 7872,
      "ilda": 7873,
      "ÅĵBut": 7874,
      "Ġdisc": 7875,
      "ĠNora": 7876,
      "ĠDog": 7877,
      "airy": 7878,
      "uggy": 7879,
      "Ġcomforting": 7880,
      "screen": 7881,
      "Ġgenerosity": 7882,
      "Ġscrub": 7883,
      "Ġprayers": 7884,
      "ĠSnap": 7885,
      "Ġwealth": 7886,
      "Ġenviron": 7887,
      "ĠFinn": 7888,
      "ĠPepper": 7889,
      "Ġemerged": 7890,
      "Ġobeyed": 7891,
      "Ġcubes": 7892,
      "ĠMaddie": 7893,
      "Ġchipmunk": 7894,
      "Ġcustomers": 7895,
      "citedly": 7896,
      "Ġmasterp": 7897,
      "Ġresponded": 7898,
      "Ġnibbled": 7899,
      "Ġcocoon": 7900,
      "Ġgesture": 7901,
      "ĠHalloween": 7902,
      "Ġenvironment": 7903,
      "Any": 7904,
      "Watch": 7905,
      "eedy": 7906,
      "oc": 7907,
      "rink": 7908,
      "Ġhen": 7909,
      "Ġmood": 7910,
      "Ġmaker": 7911,
      "Ġnatur": 7912,
      "ĠSuper": 7913,
      "oration": 7914,
      "Ġinter": 7915,
      "Ġsheets": 7916,
      "ittered": 7917,
      "lyn": 7918,
      "icate": 7919,
      "Ġbride": 7920,
      "ĠWelcome": 7921,
      "Ġdecl": 7922,
      "Ġchanges": 7923,
      "Ġsunscreen": 7924,
      "Ġbrains": 7925,
      "Ġdonkey": 7926,
      "Ġsurprising": 7927,
      "acles": 7928,
      "Ġbusiness": 7929,
      "Ġmovements": 7930,
      "Ġmarve": 7931,
      "Ġvisits": 7932,
      "Ġgrows": 7933,
      "Ġcollap": 7934,
      "Ġafar": 7935,
      "Ġstorms": 7936,
      "Ġpinching": 7937,
      "Ġdigs": 7938,
      "Ġawful": 7939,
      "Always": 7940,
      "Ġunlo": 7941,
      "Ġshovels": 7942,
      "Ġconfidence": 7943,
      "Ġburying": 7944,
      "Ġpeeled": 7945,
      "Ġencouragement": 7946,
      "Ġpaddling": 7947,
      "Ġglittering": 7948,
      "Ġforgiving": 7949,
      "intment": 7950,
      "Ġtype": 7951,
      "Ġwrinkled": 7952,
      "Surprise": 7953,
      "Ġankle": 7954,
      "Ġlaptop": 7955,
      "Jess": 7956,
      "Rosie": 7957,
      "dress": 7958,
      "even": 7959,
      "ps": 7960,
      "we": 7961,
      "worm": 7962,
      "Ġting": 7963,
      "Ġwakes": 7964,
      "rect": 7965,
      "ĠTaking": 7966,
      "Ġgroom": 7967,
      "ider": 7968,
      "ats": 7969,
      "ĠSl": 7970,
      "ĠSimon": 7971,
      "anish": 7972,
      "immered": 7973,
      "elie": 7974,
      "Ġform": 7975,
      "rying": 7976,
      "artled": 7977,
      "ĠWilliam": 7978,
      "Ġwhoever": 7979,
      "Ġdecisions": 7980,
      "Ġflick": 7981,
      "Ġflip": 7982,
      "Ġwaters": 7983,
      "ipes": 7984,
      "ĠRyan": 7985,
      "Ġforgives": 7986,
      "issa": 7987,
      "Ġbits": 7988,
      "Ġhairdress": 7989,
      "boards": 7990,
      "Ġlessons": 7991,
      "Ġfloors": 7992,
      "Ġtighter": 7993,
      "Ġcompared": 7994,
      "ĠJennie": 7995,
      "Ġcupcake": 7996,
      "Ġjobs": 7997,
      "ĠOther": 7998,
      "Ġtroubles": 7999,
      "Ġpresented": 8000,
      "Ġmattered": 8001,
      "Ġrecorder": 8002,
      "Ġprick": 8003,
      "Ġsweep": 8004,
      "Ġpandas": 8005,
      "ĠSnowman": 8006,
      "Ġtires": 8007,
      "Ġrepeating": 8008,
      "Ġspells": 8009,
      "Ġlipstick": 8010,
      "Ġlanguages": 8011,
      "Ġbothering": 8012,
      "Ġsnaps": 8013,
      "ĠOlivia": 8014,
      "ĠMeg": 8015,
      "Ġleapt": 8016,
      "Ġbruises": 8017,
      "Ġcorrect": 8018,
      "Ġnearest": 8019,
      "Ġsadder": 8020,
      "Ġthorns": 8021,
      "Ġconflict": 8022,
      "Ġnodding": 8023,
      "Ġtransf": 8024,
      "Ġgerms": 8025,
      "Ġnatural": 8026,
      "Ġhairdresser": 8027,
      "Buddy": 8028,
      "Buzz": 8029,
      "Boys": 8030,
      "Get": 8031,
      "Jessie": 8032,
      "Pl": 8033,
      "evin": 8034,
      "lt": 8035,
      "line": 8036,
      "pes": 8037,
      "what": 8038,
      "Ġsill": 8039,
      "Ġsigning": 8040,
      "Ġtossed": 8041,
      "Ġbou": 8042,
      "ouched": 8043,
      "Ġdump": 8044,
      "Ġpins": 8045,
      "Ġsteth": 8046,
      "Ġshall": 8047,
      "Ġrely": 8048,
      "Ġloses": 8049,
      "ĠgirlÃ¢": 8050,
      "Ġclues": 8051,
      "Ġalthough": 8052,
      "Ġscent": 8053,
      "Ġscores": 8054,
      "âĤ¬,": 8055,
      "ĠLooking": 8056,
      "Ġpose": 8057,
      "Ġexploration": 8058,
      "ÅĵMaybe": 8059,
      "ÅĵSee": 8060,
      "Ġwinding": 8061,
      "ĠGre": 8062,
      "acle": 8063,
      "Ġclosing": 8064,
      "Ġleaking": 8065,
      "Ġcracks": 8066,
      "Ġparted": 8067,
      "Ġdripping": 8068,
      "Ġsnowy": 8069,
      "spe": 8070,
      "Ġdesigning": 8071,
      "Ġsurv": 8072,
      "Ġself": 8073,
      "ĠBruce": 8074,
      "ĠBecky": 8075,
      "Ġadds": 8076,
      "Ġjogger": 8077,
      "Ġhamster": 8078,
      "Ġfrowns": 8079,
      "Ġsweat": 8080,
      "Ġcombed": 8081,
      "Ġtaped": 8082,
      "Ġcomputers": 8083,
      "Ġwindowsill": 8084,
      "Ġunpacking": 8085,
      "Ġhooks": 8086,
      "Ġtearing": 8087,
      "ĠPatty": 8088,
      "Ġobserving": 8089,
      "Ġexplains": 8090,
      "Ġapplause": 8091,
      "Ġluckily": 8092,
      "Ġburger": 8093,
      "Ġfreezing": 8094,
      "Ġpurr": 8095,
      "Ġspits": 8096,
      "ĠVroom": 8097,
      "Ġoutfits": 8098,
      "Ġseagulls": 8099,
      "Ġtextures": 8100,
      "ĠNana": 8101,
      "Ġcottage": 8102,
      "Ġinstruments": 8103,
      "Ġexploded": 8104,
      "Brown": 8105,
      "ĠSkip": 8106,
      "Ġbouqu": 8107,
      "Ġstethos": 8108,
      "Bang": 8109,
      "Joy": 8110,
      "Since": 8111,
      "belt": 8112,
      "bank": 8113,
      "baby": 8114,
      "jack": 8115,
      "ker": 8116,
      "Ġcongratul": 8117,
      "inging": 8118,
      "Ġgall": 8119,
      "Ġyel": 8120,
      "Ġrowed": 8121,
      "ĠBra": 8122,
      "ĠBecause": 8123,
      "Ġlies": 8124,
      "Ġshallow": 8125,
      "Ġshorter": 8126,
      "Ġscri": 8127,
      "Ġfailed": 8128,
      "ĠYouÃ¢": 8129,
      "Ġcarries": 8130,
      "ĠLia": 8131,
      "Ġcares": 8132,
      "ĠDespite": 8133,
      "antha": 8134,
      "bbling": 8135,
      "anda": 8136,
      "Ġstrum": 8137,
      "Ġsnapping": 8138,
      "ortunately": 8139,
      "ĠJoanna": 8140,
      "aste": 8141,
      "ÅĵThe": 8142,
      "ÅĵWho": 8143,
      "bee": 8144,
      "LetÃ¢": 8145,
      "Ġcompete": 8146,
      "ĠKaty": 8147,
      "Ġprod": 8148,
      "Ġcaw": 8149,
      "Ġgiggles": 8150,
      "ĠAlbert": 8151,
      "Ġsprays": 8152,
      "Ġrobots": 8153,
      "Ġstretches": 8154,
      "Ġ''": 8155,
      "Ġclassmates": 8156,
      "Ġwiser": 8157,
      "ĠZoey": 8158,
      "Meanwhile": 8159,
      "Ġapologised": 8160,
      "Ġscarecrow": 8161,
      "Ġsweaty": 8162,
      "Ġbeetles": 8163,
      "Ġmember": 8164,
      "Ġerase": 8165,
      "Ġstamped": 8166,
      "Ġscooters": 8167,
      "Ġfilms": 8168,
      "Ġbeeped": 8169,
      "ĠRoger": 8170,
      "Ġtubes": 8171,
      "Ġtraveling": 8172,
      "Ġlumberjack": 8173,
      "Ġbothered": 8174,
      "Ġsimply": 8175,
      "Ġrepeats": 8176,
      "Ġsirens": 8177,
      "Ġfocus": 8178,
      "asmine": 8179,
      "Ġcotton": 8180,
      "ĠLibby": 8181,
      "Ġastronauts": 8182,
      "Ġaisle": 8183,
      "Ġmasterpiece": 8184,
      "Ġdeclared": 8185,
      "Ġbouquet": 8186,
      "Liz": 8187,
      "Pretty": 8188,
      "Tony": 8189,
      "emy": 8190,
      "eens": 8191
    },
    "merges": [
      [
        "h",
        "e"
      ],
      [
        "Ġ",
        "t"
      ],
      [
        "Ġ",
        "a"
      ],
      [
        "Ġ",
        "s"
      ],
      [
        "n",
        "d"
      ],
      [
        "Ġ",
        "w"
      ],
      [
        "Ġt",
        "he"
      ],
      [
        "e",
        "d"
      ],
      [
        "Ġa",
        "nd"
      ],
      [
        "Ġt",
        "o"
      ],
      [
        "Ġ",
        "b"
      ],
      [
        "i",
        "n"
      ],
      [
        "Ġ",
        "h"
      ],
      [
        "Ġw",
        "a"
      ],
      [
        "r",
        "e"
      ],
      [
        "Ġ",
        "f"
      ],
      [
        "o",
        "u"
      ],
      [
        "i",
        "t"
      ],
      [
        "Ġ",
        "l"
      ],
      [
        "Ġ",
        "c"
      ],
      [
        "Ġ",
        "d"
      ],
      [
        "e",
        "r"
      ],
      [
        "Ġ",
        "he"
      ],
      [
        "Ġ",
        "m"
      ],
      [
        "Ġ",
        "p"
      ],
      [
        "Ġwa",
        "s"
      ],
      [
        "o",
        "m"
      ],
      [
        "Ġ",
        "T"
      ],
      [
        "Ġ",
        "o"
      ],
      [
        "a",
        "y"
      ],
      [
        "a",
        "r"
      ],
      [
        "i",
        "s"
      ],
      [
        "in",
        "g"
      ],
      [
        "i",
        "l"
      ],
      [
        "Ġ",
        "g"
      ],
      [
        "i",
        "d"
      ],
      [
        "a",
        "t"
      ],
      [
        "e",
        "n"
      ],
      [
        "Ġ",
        "n"
      ],
      [
        "Ġs",
        "a"
      ],
      [
        "Ġh",
        "a"
      ],
      [
        "Ġ",
        "S"
      ],
      [
        "ĠT",
        "he"
      ],
      [
        "a",
        "n"
      ],
      [
        "i",
        "m"
      ],
      [
        "o",
        "r"
      ],
      [
        "o",
        "n"
      ],
      [
        "Ġ",
        "it"
      ],
      [
        "Ġt",
        "h"
      ],
      [
        "l",
        "l"
      ],
      [
        "l",
        "e"
      ],
      [
        "Ġ",
        "H"
      ],
      [
        "Ġhe",
        "r"
      ],
      [
        "o",
        "t"
      ],
      [
        "e",
        "t"
      ],
      [
        "i",
        "r"
      ],
      [
        "ĠS",
        "he"
      ],
      [
        "ĠH",
        "e"
      ],
      [
        "e",
        "s"
      ],
      [
        "e",
        "nd"
      ],
      [
        "Ġ",
        "in"
      ],
      [
        "v",
        "er"
      ],
      [
        "u",
        "t"
      ],
      [
        "o",
        "w"
      ],
      [
        "ĠThe",
        "y"
      ],
      [
        "c",
        "k"
      ],
      [
        "Ġ",
        "u"
      ],
      [
        "l",
        "d"
      ],
      [
        "il",
        "y"
      ],
      [
        "Ġ",
        "y"
      ],
      [
        "o",
        "o"
      ],
      [
        "Ġsa",
        "id"
      ],
      [
        "i",
        "g"
      ],
      [
        "e",
        "x"
      ],
      [
        "Ġ",
        "r"
      ],
      [
        "a",
        "m"
      ],
      [
        "Ġb",
        "e"
      ],
      [
        "Ġs",
        "t"
      ],
      [
        "Ġ",
        "\""
      ],
      [
        "c",
        "e"
      ],
      [
        "Ġ",
        "I"
      ],
      [
        "Ġs",
        "he"
      ],
      [
        "k",
        "e"
      ],
      [
        "p",
        "p"
      ],
      [
        "it",
        "h"
      ],
      [
        "L",
        "ily"
      ],
      [
        "v",
        "e"
      ],
      [
        "Ġw",
        "ith"
      ],
      [
        "O",
        "n"
      ],
      [
        "Ġo",
        "n"
      ],
      [
        "Ġo",
        "f"
      ],
      [
        "r",
        "i"
      ],
      [
        "k",
        "ed"
      ],
      [
        "Ġh",
        "is"
      ],
      [
        "Ġy",
        "ou"
      ],
      [
        "Ġp",
        "l"
      ],
      [
        "f",
        "t"
      ],
      [
        "Ġs",
        "o"
      ],
      [
        "n",
        "t"
      ],
      [
        "ver",
        "y"
      ],
      [
        "a",
        "d"
      ],
      [
        "Ġd",
        "ay"
      ],
      [
        "Ġth",
        "at"
      ],
      [
        "Ġu",
        "p"
      ],
      [
        "Ġ",
        "Lily"
      ],
      [
        "Ġpl",
        "ay"
      ],
      [
        "e",
        "l"
      ],
      [
        "Ġha",
        "d"
      ],
      [
        "Ġthe",
        "y"
      ],
      [
        "s",
        "t"
      ],
      [
        "ex",
        "t"
      ],
      [
        "Ġm",
        "om"
      ],
      [
        "Ġw",
        "e"
      ],
      [
        "Ġf",
        "or"
      ],
      [
        "Ġ",
        "e"
      ],
      [
        "m",
        "y"
      ],
      [
        "ou",
        "ld"
      ],
      [
        "u",
        "n"
      ],
      [
        "Ġ",
        "B"
      ],
      [
        "'",
        "s"
      ],
      [
        "o",
        "ft"
      ],
      [
        "<",
        "|"
      ],
      [
        "|",
        ">"
      ],
      [
        "end",
        "oft"
      ],
      [
        "endoft",
        "ext"
      ],
      [
        "T",
        "he"
      ],
      [
        "Ġl",
        "i"
      ],
      [
        "Ġha",
        "pp"
      ],
      [
        "c",
        "h"
      ],
      [
        "en",
        "t"
      ],
      [
        "it",
        "t"
      ],
      [
        "Ġwa",
        "nt"
      ],
      [
        "he",
        "r"
      ],
      [
        "Ġs",
        "h"
      ],
      [
        "ou",
        "t"
      ],
      [
        "Ġd",
        "o"
      ],
      [
        "Ġn",
        "ot"
      ],
      [
        "Ġ",
        "very"
      ],
      [
        "om",
        "e"
      ],
      [
        "l",
        "y"
      ],
      [
        "a",
        "ll"
      ],
      [
        "ou",
        "nd"
      ],
      [
        "itt",
        "le"
      ],
      [
        "im",
        "e"
      ],
      [
        "s",
        "e"
      ],
      [
        "Ġw",
        "h"
      ],
      [
        "Ġ",
        "k"
      ],
      [
        "Ġl",
        "ittle"
      ],
      [
        "Ġt",
        "ime"
      ],
      [
        "Ġthe",
        "re"
      ],
      [
        "a",
        "l"
      ],
      [
        "h",
        "t"
      ],
      [
        "Ġhapp",
        "y"
      ],
      [
        "Ġ",
        "Ċ"
      ],
      [
        "Ġb",
        "ig"
      ],
      [
        "Ġ",
        "re"
      ],
      [
        "Ġ",
        "M"
      ],
      [
        "Ġ",
        "is"
      ],
      [
        "ĠI",
        "t"
      ],
      [
        "Ġs",
        "m"
      ],
      [
        "Ġb",
        "ut"
      ],
      [
        "r",
        "a"
      ],
      [
        "Ġsa",
        "w"
      ],
      [
        "ri",
        "end"
      ],
      [
        "Ġf",
        "riend"
      ],
      [
        "Ġa",
        "n"
      ],
      [
        "r",
        "y"
      ],
      [
        "Ġa",
        "s"
      ],
      [
        "a",
        "ck"
      ],
      [
        "Ġn",
        "e"
      ],
      [
        ".",
        "\""
      ],
      [
        "On",
        "e"
      ],
      [
        "id",
        "e"
      ],
      [
        "a",
        "ke"
      ],
      [
        "'",
        "t"
      ],
      [
        "v",
        "ed"
      ],
      [
        "u",
        "g"
      ],
      [
        "On",
        "ce"
      ],
      [
        "Ġl",
        "o"
      ],
      [
        "Ġl",
        "oo"
      ],
      [
        "Ġwe",
        "re"
      ],
      [
        "o",
        "re"
      ],
      [
        "!",
        "\""
      ],
      [
        "e",
        "c"
      ],
      [
        "Ġh",
        "im"
      ],
      [
        "Ġb",
        "o"
      ],
      [
        "Ġto",
        "o"
      ],
      [
        "ĠT",
        "im"
      ],
      [
        "Ġs",
        "e"
      ],
      [
        "Ġg",
        "o"
      ],
      [
        "ir",
        "l"
      ],
      [
        "Ġup",
        "on"
      ],
      [
        "Ġwant",
        "ed"
      ],
      [
        "Ġ",
        "j"
      ],
      [
        "ar",
        "d"
      ],
      [
        "Ġg",
        "irl"
      ],
      [
        "il",
        "l"
      ],
      [
        "Ġa",
        "re"
      ],
      [
        "Ġthe",
        "m"
      ],
      [
        "Ġ",
        "out"
      ],
      [
        "Ġa",
        "t"
      ],
      [
        "Ġthe",
        "ir"
      ],
      [
        "i",
        "nd"
      ],
      [
        "Ġs",
        "p"
      ],
      [
        "w",
        "ay"
      ],
      [
        "f",
        "u"
      ],
      [
        "Ġd",
        "id"
      ],
      [
        "u",
        "r"
      ],
      [
        "Ġc",
        "ould"
      ],
      [
        "Ġ",
        "A"
      ],
      [
        "he",
        "n"
      ],
      [
        "Ġsm",
        "il"
      ],
      [
        "a",
        "in"
      ],
      [
        "Ġha",
        "ve"
      ],
      [
        "ar",
        "t"
      ],
      [
        "t",
        "er"
      ],
      [
        "Ġw",
        "ent"
      ],
      [
        "he",
        "d"
      ],
      [
        "r",
        "om"
      ],
      [
        "i",
        "c"
      ],
      [
        "r",
        "ound"
      ],
      [
        "Ġ",
        "ex"
      ],
      [
        "l",
        "p"
      ],
      [
        "Ġn",
        "am"
      ],
      [
        "Ġc",
        "an"
      ],
      [
        "fu",
        "l"
      ],
      [
        "Ġfriend",
        "s"
      ],
      [
        "ĠB",
        "en"
      ],
      [
        "h",
        "ing"
      ],
      [
        "Ġhe",
        "lp"
      ],
      [
        "Ġk",
        "n"
      ],
      [
        "Ġa",
        "ll"
      ],
      [
        "Ġ",
        "J"
      ],
      [
        "oo",
        "d"
      ],
      [
        "ig",
        "ht"
      ],
      [
        "?",
        "\""
      ],
      [
        "u",
        "m"
      ],
      [
        "ar",
        "k"
      ],
      [
        "on",
        "e"
      ],
      [
        "Ġb",
        "ack"
      ],
      [
        "Ġf",
        "un"
      ],
      [
        "Ġc",
        "l"
      ],
      [
        "a",
        "re"
      ],
      [
        "Ġs",
        "ay"
      ],
      [
        "Ġl",
        "e"
      ],
      [
        "Y",
        "ou"
      ],
      [
        "Ġnam",
        "ed"
      ],
      [
        "Ġn",
        "o"
      ],
      [
        "ĠT",
        "om"
      ],
      [
        "Ġlo",
        "ved"
      ],
      [
        "o",
        "p"
      ],
      [
        "el",
        "t"
      ],
      [
        "ĠTim",
        "my"
      ],
      [
        "Ġ",
        "One"
      ],
      [
        "ou",
        "g"
      ],
      [
        "Ġa",
        "l"
      ],
      [
        "Ġs",
        "c"
      ],
      [
        "s",
        "ide"
      ],
      [
        "Ġf",
        "elt"
      ],
      [
        "Ġto",
        "y"
      ],
      [
        "i",
        "ck"
      ],
      [
        "Ġsmil",
        "ed"
      ],
      [
        "Ġm",
        "an"
      ],
      [
        "Ġf",
        "e"
      ],
      [
        "Ġas",
        "ked"
      ],
      [
        "Ġse",
        "e"
      ],
      [
        "am",
        "e"
      ],
      [
        "Ġloo",
        "ked"
      ],
      [
        "Ġli",
        "ke"
      ],
      [
        "Ġa",
        "round"
      ],
      [
        "Ġs",
        "ome"
      ],
      [
        "om",
        "et"
      ],
      [
        "u",
        "re"
      ],
      [
        "Ġr",
        "o"
      ],
      [
        "Ġbo",
        "y"
      ],
      [
        "Ġb",
        "r"
      ],
      [
        "g",
        "et"
      ],
      [
        "Ġw",
        "ould"
      ],
      [
        "Ġm",
        "e"
      ],
      [
        "Ġ",
        "W"
      ],
      [
        "Ġb",
        "ir"
      ],
      [
        "on",
        "g"
      ],
      [
        "i",
        "ce"
      ],
      [
        "Ġst",
        "art"
      ],
      [
        "s",
        "s"
      ],
      [
        "Ġs",
        "omet"
      ],
      [
        "Ġbir",
        "d"
      ],
      [
        "ing",
        "s"
      ],
      [
        "Ġf",
        "a"
      ],
      [
        "Ġw",
        "or"
      ],
      [
        "Ġa",
        "g"
      ],
      [
        "ad",
        "e"
      ],
      [
        "Ġm",
        "ake"
      ],
      [
        "Ġwh",
        "at"
      ],
      [
        "Ġt",
        "re"
      ],
      [
        "d",
        "d"
      ],
      [
        "k",
        "ing"
      ],
      [
        "get",
        "her"
      ],
      [
        "ow",
        "n"
      ],
      [
        "ĠB",
        "ut"
      ],
      [
        "Ġa",
        "way"
      ],
      [
        "Ġr",
        "an"
      ],
      [
        "a",
        "g"
      ],
      [
        "Ġstart",
        "ed"
      ],
      [
        ",",
        "\""
      ],
      [
        "Ġ",
        "You"
      ],
      [
        "ou",
        "d"
      ],
      [
        "Ġm",
        "ade"
      ],
      [
        "ar",
        "ed"
      ],
      [
        "i",
        "e"
      ],
      [
        "Ġto",
        "gether"
      ],
      [
        "Ã",
        "¢"
      ],
      [
        "â",
        "Ĥ"
      ],
      [
        "âĤ",
        "¬"
      ],
      [
        "Ġc",
        "o"
      ],
      [
        "Ġsay",
        "s"
      ],
      [
        "Ġp",
        "ark"
      ],
      [
        "Ġsomet",
        "hing"
      ],
      [
        "Ġc",
        "ar"
      ],
      [
        "t",
        "her"
      ],
      [
        "it",
        "ed"
      ],
      [
        "Ġsa",
        "d"
      ],
      [
        "Ġp",
        "ut"
      ],
      [
        "Ġne",
        "w"
      ],
      [
        "Ġo",
        "ther"
      ],
      [
        "Ġp",
        "r"
      ],
      [
        "b",
        "le"
      ],
      [
        "Ġag",
        "ain"
      ],
      [
        "Ġf",
        "rom"
      ],
      [
        "Ġex",
        "c"
      ],
      [
        "Ġh",
        "ug"
      ],
      [
        "Ġm",
        "u"
      ],
      [
        "Ġh",
        "ome"
      ],
      [
        "Ġl",
        "a"
      ],
      [
        "e",
        "ll"
      ],
      [
        "Ġw",
        "hen"
      ],
      [
        "Ġwh",
        "o"
      ],
      [
        "oo",
        "k"
      ],
      [
        "Ġg",
        "ood"
      ],
      [
        "es",
        "t"
      ],
      [
        "ri",
        "ed"
      ],
      [
        "Ġf",
        "ound"
      ],
      [
        "i",
        "f"
      ],
      [
        "Ġ",
        "L"
      ],
      [
        "Ġthe",
        "n"
      ],
      [
        "a",
        "ch"
      ],
      [
        "e",
        "p"
      ],
      [
        "Ġd",
        "ec"
      ],
      [
        "Ġf",
        "l"
      ],
      [
        "pp",
        "ed"
      ],
      [
        "Ġc",
        "h"
      ],
      [
        "a",
        "s"
      ],
      [
        "Ġplay",
        "ing"
      ],
      [
        "oug",
        "ht"
      ],
      [
        "Ġwa",
        "l"
      ],
      [
        "Ġg",
        "et"
      ],
      [
        "q",
        "u"
      ],
      [
        "all",
        "y"
      ],
      [
        "h",
        "at"
      ],
      [
        "Ġ",
        "E"
      ],
      [
        "Ġth",
        "ings"
      ],
      [
        "Ġs",
        "w"
      ],
      [
        "u",
        "ck"
      ],
      [
        "Ġg",
        "ot"
      ],
      [
        "p",
        "l"
      ],
      [
        "ou",
        "s"
      ],
      [
        "Ġli",
        "ked"
      ],
      [
        "n",
        "n"
      ],
      [
        "Ġe",
        "very"
      ],
      [
        "Ġdec",
        "id"
      ],
      [
        "Ġexc",
        "ited"
      ],
      [
        "a",
        "ve"
      ],
      [
        "Ġdecid",
        "ed"
      ],
      [
        "r",
        "o"
      ],
      [
        "Ġc",
        "ame"
      ],
      [
        "a",
        "x"
      ],
      [
        "Ġb",
        "l"
      ],
      [
        "Ġbe",
        "c"
      ],
      [
        "Ġd",
        "own"
      ],
      [
        "Ġyou",
        "r"
      ],
      [
        "Ġ",
        "v"
      ],
      [
        "Ġf",
        "ind"
      ],
      [
        "Ġc",
        "are"
      ],
      [
        "Ġdo",
        "g"
      ],
      [
        "u",
        "st"
      ],
      [
        "Ġsc",
        "ared"
      ],
      [
        "Ġon",
        "e"
      ],
      [
        "Ġfe",
        "el"
      ],
      [
        "Ġth",
        "an"
      ],
      [
        "is",
        "t"
      ],
      [
        "ou",
        "se"
      ],
      [
        "n",
        "y"
      ],
      [
        "Ġd",
        "ad"
      ],
      [
        "Ġ",
        "D"
      ],
      [
        "a",
        "p"
      ],
      [
        "ĠM",
        "om"
      ],
      [
        "Ġa",
        "b"
      ],
      [
        "ar",
        "n"
      ],
      [
        "ar",
        "a"
      ],
      [
        "way",
        "s"
      ],
      [
        "u",
        "e"
      ],
      [
        "Ġdid",
        "n"
      ],
      [
        "nn",
        "a"
      ],
      [
        "Ġg",
        "ra"
      ],
      [
        "u",
        "dd"
      ],
      [
        "Ġm",
        "y"
      ],
      [
        "Ġal",
        "ways"
      ],
      [
        "an",
        "t"
      ],
      [
        "Ġtoo",
        "k"
      ],
      [
        "er",
        "s"
      ],
      [
        "The",
        "y"
      ],
      [
        "Ġ",
        "ke"
      ],
      [
        "u",
        "s"
      ],
      [
        "Ġmom",
        "my"
      ],
      [
        "es",
        "s"
      ],
      [
        "Ġ",
        "F"
      ],
      [
        "f",
        "e"
      ],
      [
        "Ġab",
        "out"
      ],
      [
        "ou",
        "r"
      ],
      [
        "Ġl",
        "ot"
      ],
      [
        "Ġtoy",
        "s"
      ],
      [
        "Ġtre",
        "e"
      ],
      [
        "Ġp",
        "o"
      ],
      [
        "Ġkn",
        "e"
      ],
      [
        "Ġb",
        "all"
      ],
      [
        "Ġloo",
        "k"
      ],
      [
        "Ġw",
        "ill"
      ],
      [
        "nd",
        "er"
      ],
      [
        "Ġout",
        "side"
      ],
      [
        "it",
        "e"
      ],
      [
        "Ġth",
        "ought"
      ],
      [
        "ec",
        "i"
      ],
      [
        "en",
        "ed"
      ],
      [
        "Ġt",
        "a"
      ],
      [
        "Ġle",
        "arn"
      ],
      [
        "b",
        "b"
      ],
      [
        "is",
        "e"
      ],
      [
        "c",
        "hed"
      ],
      [
        "Ġm",
        "ore"
      ],
      [
        "Ġp",
        "re"
      ],
      [
        "Ġkn",
        "ow"
      ],
      [
        "Ġh",
        "o"
      ],
      [
        "Ġin",
        "t"
      ],
      [
        "ĠS",
        "am"
      ],
      [
        "g",
        "ed"
      ],
      [
        "eci",
        "al"
      ],
      [
        "Ġsp",
        "ecial"
      ],
      [
        "Ġo",
        "ld"
      ],
      [
        "Ġt",
        "ake"
      ],
      [
        "Ġs",
        "or"
      ],
      [
        "ĠM",
        "ax"
      ],
      [
        "Ġla",
        "ug"
      ],
      [
        "Ġp",
        "e"
      ],
      [
        "Ġkne",
        "w"
      ],
      [
        "i",
        "ve"
      ],
      [
        "Ġc",
        "at"
      ],
      [
        "m",
        "a"
      ],
      [
        "ft",
        "er"
      ],
      [
        "Ġh",
        "ow"
      ],
      [
        "Ġan",
        "y"
      ],
      [
        "udd",
        "en"
      ],
      [
        "a",
        "u"
      ],
      [
        "Ġsh",
        "ow"
      ],
      [
        "Ġt",
        "r"
      ],
      [
        "Ġmu",
        "ch"
      ],
      [
        "i",
        "a"
      ],
      [
        "udden",
        "ly"
      ],
      [
        "Ġsor",
        "ry"
      ],
      [
        "a",
        "nd"
      ],
      [
        "Ġs",
        "l"
      ],
      [
        "in",
        "k"
      ],
      [
        "B",
        "ut"
      ],
      [
        "is",
        "h"
      ],
      [
        "Ġr",
        "un"
      ],
      [
        "Ġh",
        "ouse"
      ],
      [
        "Ġt",
        "w"
      ],
      [
        "v",
        "en"
      ],
      [
        "Ġto",
        "ld"
      ],
      [
        "Ġo",
        "r"
      ],
      [
        "Ġs",
        "k"
      ],
      [
        "Ġo",
        "p"
      ],
      [
        "Ġha",
        "nd"
      ],
      [
        "Ġs",
        "un"
      ],
      [
        "Ġin",
        "side"
      ],
      [
        "Ġg",
        "ave"
      ],
      [
        "Ġt",
        "ried"
      ],
      [
        "Ġm",
        "o"
      ],
      [
        "Ġcl",
        "o"
      ],
      [
        "Ġint",
        "o"
      ],
      [
        "Ġwa",
        "ter"
      ],
      [
        "Ġpr",
        "oud"
      ],
      [
        "an",
        "k"
      ],
      [
        "Ġcould",
        "n"
      ],
      [
        "Ġo",
        "ver"
      ],
      [
        "Ġ",
        "qu"
      ],
      [
        "au",
        "se"
      ],
      [
        "at",
        "e"
      ],
      [
        "Ġne",
        "ver"
      ],
      [
        "um",
        "p"
      ],
      [
        "t",
        "y"
      ],
      [
        "ot",
        "her"
      ],
      [
        "ĠE",
        "very"
      ],
      [
        "Ġ",
        "en"
      ],
      [
        "Ġe",
        "at"
      ],
      [
        "Ġ",
        "if"
      ],
      [
        "a",
        "ce"
      ],
      [
        "Ġro",
        "om"
      ],
      [
        "Ġplay",
        "ed"
      ],
      [
        "et",
        "ter"
      ],
      [
        "Ġhe",
        "ard"
      ],
      [
        "g",
        "e"
      ],
      [
        "Ġex",
        "pl"
      ],
      [
        "Ġe",
        "ach"
      ],
      [
        "Ġp",
        "ick"
      ],
      [
        "Ġpre",
        "t"
[...]
